0003
0014
0000
0009
0047
0009
FFFF
0011
0002
0004
0003
0003
0007
FFE3
000C
0004
001E
000E
FFFD
0001
0003
FFEA
FFFB
0011
0008
000E
FFDB
0001
FFF6
0008
FFF7
FFC4
FFFA
0000
FFE7
0007
0006
FFFA
FFFF
FFDA
000C
000D
0003
FFFD
0002
FFFD
FFD8
FFFC
FFFF
0012
0000
0002
0013
0006
FFFF
0004
FFFD
0002
FFC2
0004
0000
0003
0001
FFFE
0008
FFFD
FFFF
0032
0001
FFFF
0008
FFFE
FFFF
0000
0001
0003
FFFD
0004
0002
FFB8
0000
FFFC
0009
FFFF
0007
0088
0010
FFFD
000B
0001
0001
FFFD
0002
FFFF
0047
0000
0000
0000
0001
FFFD
FFEB
FFFA
FFFA
000E
FFFA
FFF6
FFF7
FFF8
0003
0000
0002
FFFD
FFC6
FFFE
0001
0000
0001
000C
0018
0008
000D
001D
0004
000A
000C
0008
FFF6
FFF3
FFFA
FFFE
FFD4
FFFE
000E
0040
000A
0001
0002
0001
0006
FFD0
0005
0002
FFFD
0002
FFFB
FFFE
FFFA
FFFB
0064
FFFD
FFFB
FFFF
FFFC
FFFF
FFDB
FFFF
0002
0020
FFFC
0002
0008
0001
0007
FFFC
0001
FFFE
FFB7
FFF7
0006
FFF0
0007
0002
0004
0005
FFFA
FFEC
0032
0001
FFFE
FFFD
FFFE
0000
0003
FFF8
FFFC
FFFC
FFE3
0010
FFFD
FFFC
FFFB
FFF5
0001
000D
FFF0
FFF9
FFE7
FFF8
0001
FFFD
FFFF
FFFC
005B
FFFF
FFFF
FFFA
0003
FFFF
0000
0000
FFF9
FFC5
FFF8
FFFD
FFFB
0000
0000
FFFF
0002
FFFA
0052
0002
FFFF
FFFF
0000
FFFE
FFFE
FFF2
FFF3
0006
0001
0005
FFD5
000A
FFFE
FFFA
FFFC
0000
FFFE
FFF2
FFFC
FFF1
0024
0000
0001
0001
0004
0038
0010
0003
0004
0002
FFFA
FFFC
0000
0001
0044
0002
0003
FFFA
FFFF
0004
FFF4
FFFA
FFE0
000B
0006
FFFE
FFFF
0002
FFF9
0004
FFFC
FFF9
0020
FFF8
FFFC
FFEA
FFFC
0000
0010
0006
FFF5
FFE0
0007
0000
0003
0005
FFFE
FFF8
FFFE
FFFB
0038
FFFC
FFFD
0001
FFFF
0005
FFFE
0006
0003
FFE1
0003
0009
0021
0000
0007
0008
0008
0006
FFD2
FFF2
0009
FFF0
0004
FFFC
0006
FFFE
FFFC
FFC3
FFFE
0003
0000
0001
0001
FFFF
FFFD
000F
FFD3
001D
0002
0004
FFFB
FFFE
FFFF
FFFF
0003
FFC2
0002
0001
0000
0002
0002
0003
FFFE
0001
0035
FFFE
FFFE
0004
0000
FFFF
001B
FFFB
001B
FFF0
0008
FFFB
0007
0009
0000
FFFD
FFFE
FFFE
0052
FFF8
0000
FFFC
FFFD
0002
FFD6
FFFD
0001
000E
0002
0003
001D
0000
FFFF
FFFE
FFFF
0003
FFC3
FFFD
FFFE
FFFE
FFFF
FFFF
FFE6
0005
FFFD
FFE1
0003
0002
FFE2
0005
0000
0005
FFFE
0002
0005
0001
0001
FFC3
0002
FFFE
0002
0001
0037
FFF8
0001
000A
FFFC
0000
0005
0006
FFFF
000B
0047
FFFA
0000
0000
FFFE
FFFF
FFEE
0000
FFF3
FFD3
FFEC
FFFF
FFE9
FFF9
FFFD
FFE0
0000
FFFE
0008
FFFB
FFFE
0012
0001
0002
FFFF
0005
FFFB
FFD2
0003
0003
FFFC
0004
0000
0022
0000
FFFE
FFF4
FFF8
0000
FFEF
0010
0000
0001
FFFF
FFFE
0047
FFFE
0003
FFFE
FFFF
0004
0004
0002
0000
FFC2
FFFE
0000
FFFA
0000
FFFD
FFEF
0003
0003
FFCF
FFFF
FFFD
FFF6
0004
0002
FFF8
0005
0000
0026
FFE8
0003
FFE7
FFF8
FFFF
FFFC
FFFD
0000
004B
FFFF
FFFE
FFFD
FFFE
FFFD
0000
FFFE
FFFF
0039
FFFE
FFFF
0002
0000
0000
FFFD
FFFA
0001
FFFF
FFD4
0002
0006
FFFF
FFFD
0020
FFFF
FFFE
000B
FFF6
0001
FFFE
0006
0005
0006
0003
0008
FF8E
000D
0003
0005
0004
0001
0007
0005
0005
0076
000B
0004
000C
000B
FFFF
0009
FFFE
0001
0033
FFFE
FFFF
0009
FFFF
FFFF
0018
FFFE
FFF6
FFE2
001B
0004
FFFD
FFF4
0002
0002
0005
0004
0008
FFCB
0001
0002
0001
FFE6
FFA9
FFED
FFB2
FF62
FFC5
FFF0
FFBE
FFFE
FFFF
0002
FFFE
0003
000B
002D
0001
0004
0003
0001
0004
FFFF
FFFF
FFFB
FFF7
FFFC
FFB0
0001
0004
0006
0001
0003
FFFD
0002
000A
FFC1
0001
0000
FFFF
FFFD
FFFA
FFE1
0028
0007
0003
FFFD
FFFF
0007
0000
FFFF
0009
0001
FFFE
FFD3
FFFD
FFF9
0000
FFF6
0006
0021
0000
FFF8
0003
FFF2
0002
0002
0000
FFDC
FFFF
0001
0003
0006
0000
FFFC
FFEF
FFFF
FFEC
FFC9
FFF5
FFFB
FFF4
FFFD
0001
0000
0002
FFFD
FFBC
FFFF
0001
0001
0002
0008
FFD2
0001
FFFC
0005
0006
0003
0004
FFFE
0000
001C
FFF1
FFF2
FFEC
002D
0000
FFF5
FFFB
FFFE
0001
0001
0000
00A0
0006
0000
0008
0001
0009
FFFE
0007
FFF7
FFAE
FFEB
0009
FFDE
0003
FFE5
FFB7
FFED
000F
0020
0010
000B
001B
0007
0000
0007
0003
0006
FFA2
0001
0006
0004
0003
0000
0000
FFFB
0000
FFFC
003F
0001
FFFF
FFFB
0003
FFFD
0001
0002
0003
0000
0003
FFC2
0005
0000
FFFC
FFFF
FFFD
0042
FFFE
FFFD
0000
0003
0000
FFFD
FFFD
FFFE
004F
FFFD
FFFC
FFFF
FFFF
0000
FFFB
0001
0002
FFFD
0002
FFFC
0033
0002
0002
0006
0003
FFFC
FFF8
FFC6
0001
0002
0000
FFFD
FFEB
FFFC
0005
0027
0003
0001
0001
FFFD
0009
0004
FFFD
FFFA
FFB9
FFFF
0003
002C
000A
0001
0002
0001
FFFD
FFC1
0003
0001
0003
0001
FFFC
0007
0006
FFF7
0005
000A
0006
FFDF
0008
FFFA
0012
FFFC
000F
004B
001A
FFFA
0018
FFFB
0004
0004
0002
0000
FFAD
FFF8
0005
FFFF
0005
FFFF
0002
0003
FFF1
FFF6
0022
FFFF
FFFC
0004
0007
000E
FFFD
000B
003A
FFF7
FFFD
FFF7
0002
FFFF
0006
FFFE
0002
FFF8
FFF9
FFFB
0037
0005
FFFD
FFFD
FFFD
0001
003D
0001
FFFE
0001
FFFF
FFFC
0006
FFFF
0001
0016
0006
FFF9
FFDE
FFFE
FFF7
000B
FFF8
000C
0037
0012
FFF8
0014
FFFA
FFFE
FFFC
FFDA
FFFF
0001
000D
0002
FFFE
0003
FFF1
FFF3
FFEF
FFEF
0001
FFD5
FFF4
FFE1
FFF0
0001
FFFB
FFFE
000A
FFC7
0003
0002
FFFC
FFFF
FFFA
FFF3
FFF5
FFFE
0021
FFF7
FFF9
FFFC
FFF5
001E
003C
001C
FFEC
FFEA
FFF4
FFFA
FFEC
FFFB
0001
FFFE
0005
FFFB
FFEA
0035
0001
FFFC
000B
FFFD
FFFE
FFFC
0000
FFFF
0046
FFFD
FFFC
0006
0005
0001
0002
FFFF
0004
0006
0001
0004
FFCB
0000
0000
0001
FFFB
FFFE
0051
0000
FFFD
FFFB
000A
000F
0006
0010
0025
000E
0004
0014
0007
0002
0011
FFFF
0002
FFA5
0003
0001
0002
0002
0001
FFFB
0000
0003
FFC9
0004
0002
FFF5
0003
FFFF
FFED
FFFC
0001
FFC5
FFFA
FFFE
FFED
FFFA
FFF6
FFF2
FFF7
FFED
002D
000A
FFF6
0009
0007
0001
FFFF
FFFD
0002
0001
0008
0001
FFC2
0003
FFFD
FFF2
FFF0
0020
0019
FFE2
0002
0026
FFF5
FFFD
FFFF
0001
0000
003C
FFFE
0002
0001
FFFD
FFFB
0001
FFFD
FFEB
FFC0
FFED
0000
FFFE
0001
000B
001D
000B
0018
FFA2
0006
0009
0004
0007
0007
0002
0006
FFFD
FFB5
FFF0
0007
FFFD
0003
0009
0003
FFF3
0005
FFC9
0004
FFF4
0002
0006
FFF1
FFF9
FFFF
FFF8
0040
0009
0000
0006
0008
0000
FFF8
FFFE
0006
0037
0008
0001
FFFE
0002
0003
FFFB
0006
FFFF
FFF6
000A
FFFA
FFE8
000E
0002
FFE7
0001
FFF4
000D
0001
FFFF
000B
0002
0002
FFFF
0005
0005
FFC5
0005
0001
0003
0000
0003
0006
FFFB
0000
FFC2
FFF6
0003
0014
000D
0000
FFFD
FFFD
FFF9
0038
FFFA
FFFD
FFF4
0003
FFFD
0005
FFFB
FFFF
FFEC
004B
FFFC
0001
FFFE
0003
FFFF
0006
0003
0040
0001
0002
0003
FFFF
FFFE
FFE8
0000
0002
FFEC
FFEA
0014
0024
000A
FFFD
FFFC
FFFE
FFF9
0049
FFFA
FFFE
FFFE
0000
0000
0001
FFFC
FFD9
000D
000D
FFFE
FFFD
FFFE
0000
FFFD
0002
FFFB
FFCF
FFF9
0001
0000
FFFF
FFFF
0004
FFFE
0002
FFFC
FFEC
FFFF
FFFA
002E
FFFF
FFF2
FFFD
FFFE
FFF0
FFE6
FFFE
FFF5
0001
FFFD
FFF8
FFFD
0003
FFCA
FFFE
0002
FFF9
FFFF
0001
FFF2
FFFC
FFFD
005C
FFF4
FFFF
FFEF
FFFC
FFFA
FFEE
0006
FFF0
0002
0021
0008
0026
FFF0
FFFF
0006
FFFC
0006
0002
FFF0
FFFD
FFFA
FFAE
0000
0001
0004
FFF9
004B
FFFB
FFFF
FFFA
FFFC
FFFC
FFF0
FFF7
0000
005A
0004
FFFA
FFF3
0002
FFFF
FFF6
0002
FFFA
0000
0004
FFFE
0025
FFFE
0002
0007
FFFF
0004
FFA3
0006
0000
0001
0000
FFFF
0005
FFFD
0001
0026
000C
FFFF
FFFF
0000
0000
0006
0001
FFFA
FFED
0028
0002
0000
0004
0010
0010
0001
0023
FFF3
FFED
0003
FFF5
FFFF
000A
0016
0008
0020
002D
0019
000C
0019
0008
0000
0005
FFFE
0005
FFA8
0009
0003
0004
0002
FFFA
FFFA
FFFB
FFFB
006D
FFFB
FFFD
FFF8
FFF8
FFFE
0004
FFFA
0001
0007
0000
FFFE
FFD0
0001
FFFF
0000
0005
0001
FFFD
FFBC
0000
0002
FFF9
0002
0005
0002
0002
0006
0000
0001
FFC4
FFFD
FFF8
FFE7
FFF5
FFFA
0013
FFFA
FFF9
0006
FFFF
0019
0015
000C
0017
FFEF
FFFE
000A
FFFF
FFFF
FFFD
FFFA
FFFE
0007
FFB9
0003
0007
0003
0001
0001
0002
0001
0002
0001
FFC8
0004
0003
FFFF
FFFF
FFF8
FFFF
0006
003C
0008
0000
FFFD
0001
0001
FFFE
0000
0000
0034
FFF9
0001
FFF8
FFFD
0000
FFFD
FFFE
0007
000A
FFD2
0001
FFFE
FFFD
FFFD
FFFB
FFFC
FFE9
FFD0
FFE7
0000
FFF7
FFFE
0002
0003
0000
FFFF
FFBD
0001
0002
0000
0003
0003
FFF4
0000
FFF1
FFD7
FFEE
0001
FFF0
FFF9
FFFF
FFFF
FFFE
FFFC
FFFF
FFFE
FFFF
003F
0004
0001
0000
0002
0008
FFF8
0001
0007
FFD4
FFFE
0001
FFFF
0001
0006
FFB0
0008
0000
FFFA
0001
FFFC
0006
0003
000A
FFB9
000E
FFF6
0000
0005
FFFC
FFEF
FFFB
FFEE
FFD7
FFEE
FFF7
FFEC
FFFA
0001
FFFB
FFFE
FFFB
005D
FFFB
FFFD
FFFA
FFFD
0002
FFFE
0003
001B
FFE8
0005
0006
FFFD
FFFE
0001
0001
0004
FFFD
FFCA
FFFB
0003
0002
0003
0001
0005
0002
0002
FFE1
0013
0006
0018
0005
FFFE
FFFD
0001
0002
FFBE
FFFA
FFFC
FFFC
FFFF
FFFF
0002
0001
0004
0006
FFFE
0003
FFB5
0001
FFFD
FFFF
FFFC
FFFE
003C
FFFD
FFFD
FFFC
0000
FFFD
FFFD
FFF7
FFF9
FFFA
004B
FFFC
FFFC
0001
0001
FFFE
FFFF
0010
0009
FFDB
0000
0002
FFFC
0004
0007
0006
0001
FF9A
000E
0004
000A
000A
0000
0002
0000
FFF7
FFCC
FFF8
0001
0002
0000
0000
0000
0002
FFFE
FFCE
FFF6
0002
0002
0005
0001
000E
FFFF
FFFA
0004
0001
0002
FFDA
0001
0004
0003
FFFF
0005
FFCF
000B
FFFD
000E
0004
0000
FFFC
0001
FFFF
003C
FFFF
FFFE
FFFE
FFFF
FFFC
FFFD
0000
FFFF
0032
FFFF
FFFA
FFFC
FFFF
0001
0000
0005
FFF7
FFA1
0004
0001
0001
0005
FFFD
FFFA
0001
FFD7
000D
000A
FFF8
FFFE
FFFF
FFFB
FFF4
FFF6
FFF9
FFA2
FFF6
FFFA
FFF7
FFF3
FFFA
FFD2
FFF5
0001
0018
FFFE
0002
FFFF
0000
FFFC
FFFC
0000
FFFC
0049
FFFE
FFFF
0001
0000
0002
0012
FFFA
000D
000E
0006
FFFF
0006
0008
FFFD
FFF4
FFFC
FFFC
0064
FFFD
0000
0000
FFFF
0003
0001
FFF7
0000
FFFC
FFC6
0002
0004
FFF2
0000
0000
0001
0003
0000
0001
0006
FFCB
FFFD
FFFF
FFFF
0000
FFFD
0002
FFFE
0000
0048
0000
0001
0003
0004
FFFF
0001
FFC1
0001
0003
FFFB
0002
FFF1
0003
FFFD
FFC1
0000
0001
FFEC
0004
0001
FFFD
FFFE
FFFB
FFF1
0052
0000
0001
0000
0002
FFFB
0000
0015
FFD0
0011
0002
0003
0001
FFFF
FFFF
0000
FFE3
FFFC
0023
0000
FFFF
0001
FFFF
000D
0003
0001
FFD2
FFF8
0002
0012
FFFD
0001
0000
0002
FFFB
FFCA
FFF6
0003
0002
0001
FFFE
0001
FFFB
FFFF
0001
FFFC
FFFC
0040
000A
FFFD
000A
FFFF
FFED
0027
0000
FFFB
000C
FFFE
FFFF
FFFD
0000
FFFB
0046
0000
FFFE
0001
FFFE
0001
000B
0005
0007
0021
0006
0005
000B
0009
FFFE
FFFC
FFFE
0001
003A
FFF5
0000
0001
0000
FFFC
FFFA
0001
FFFF
FFF9
FFFF
FFF9
0049
0001
FFF9
0001
FFFA
FFEF
FFF1
0017
0000
000E
0003
0001
0006
FFFA
0001
0035
FFF8
FFFB
FFFA
FFFB
FFFE
0007
FFFD
0007
FFB0
0001
0000
0004
FFFF
FFFD
0002
0001
FFFB
FFED
0028
0002
0000
FFFB
FFFE
FFFF
FFFF
FFFE
0054
0006
0002
0001
0004
FFFD
FFF8
FFFF
0001
003C
FFFF
0001
FFFE
FFFE
0001
FFFD
FFFF
FFFE
0002
0045
0000
FFFF
0006
0001
FFFF
0002
0011
003E
000D
FFFE
FFF1
FFFB
FFFF
0005
FFFC
FFFA
FFFF
FFFA
FFFF
0045
0009
0005
0004
0005
0008
FFA1
000C
0003
0005
0003
0001
FFFE
FFFA
0007
FFC6
0000
0000
FFF9
0003
FFFD
FFFD
FFFD
0003
003B
0002
FFFE
FFFF
FFFD
FFFE
0002
0002
FFFC
FFFB
003F
FFFF
FFFF
FFFC
FFFF
FFFA
0001
000D
0034
000F
FFFF
FFFB
FFFF
0000
FFFD
0003
FFFF
0049
FFFF
FFFD
0000
0003
0002
0005
FFFB
0003
FFC3
0000
FFFD
FFFE
0000
0001
FFFB
FFFF
FFFC
0054
FFFC
0001
0000
0001
FFFC
FFFC
FFFD
0005
004F
0005
FFFF
FFFE
FFFF
FFFF
FFFE
0001
FFFF
0001
FFFD
FFE1
0016
000E
0003
0007
0000
0003
FFA8
0003
0000
0003
0001
0004
FFEA
FFFA
FFEA
001F
0006
FFF8
0007
0005
FFFD
0000
FFFB
FFF9
FFC3
FFFE
FFFF
0004
0001
0001
0001
FFFF
0005
FFCB
0005
0003
FFFE
0001
FFFC
0000
0006
FFFD
FFF9
003C
FFFC
0002
000D
FFFF
FFFB
FFFF
0005
0037
0007
FFFE
FFFC
FFFE
0003
0015
0004
001B
FFAF
000C
0004
0008
0003
0000
FFF2
FFFD
0008
FFEA
FFFB
FFFF
0038
FFFA
0003
FFFE
0003
000E
FFB6
0006
0005
FFF6
0004
0003
0003
0001
0002
FFC5
FFFD
FFFE
0005
0001
0008
FFEC
0009
FFE5
FFAF
FFE2
0004
FFDD
0004
0001
0000
FFFE
0024
FFDE
FFF5
0003
0001
0004
0000
0008
FFFC
FFF3
FFF0
002A
0000
FFFF
0001
0000
FFFF
FFFE
FFFF
FFFB
003B
FFFC
FFFF
0004
FFF8
FFF6
FFF5
FFF3
FF7E
FFE8
FFF7
FFF1
FFEE
FFFD
FFFE
FFFF
0003
FFBC
FFFE
FFFE
FFF9
FFFF
FFFB
FFFC
0001
FFFF
004C
FFFC
0003
0001
0000
0001
0014
FFF6
FFE6
0007
0013
000D
FFDA
FFFE
FFFC
0003
FFFF
0005
FFB3
0002
0003
0000
FFFD
0002
FFF6
FFFF
FFF9
FFB6
FFF4
0000
FFEE
FFFD
0005
0000
0003
0005
0005
FFBD
0001
0003
0004
FFF5
FFF4
FFFA
0003
0040
000E
0001
0007
000A
0000
0004
FFFD
FFFB
0037
FFFC
FFFE
0007
FFFF
FFFB
FFF6
0001
FFFA
FFF0
0015
FFFF
0020
0006
FFFF
FFFE
FFFE
FFDB
0011
000C
FFFD
FFFC
FFFF
0000
FFFE
0003
0000
FFBD
0002
0003
0005
0001
FFFF
FFF3
FFF8
0007
0001
FFDD
0005
0007
FFFE
FFFD
0002
0002
0012
0035
0016
FFFD
0002
FFFF
FFFF
FFFE
0000
FFFE
0048
0001
FFFF
FFF8
FFFF
0001
0006
FFFB
0007
002D
FFF4
FFFB
FFF2
FFEE
FFF5
0002
FFF5
0007
003D
000C
FFF8
000D
FFFD
0001
FFFD
FFFF
0003
FFB9
FFFF
0000
FFFD
0002
