FF81
FFBA
0009
FFBC
FFE6
0067
0049
FF6E
FFEC
001F
FFCE
0022
0003
FEE2
FF45
003A
FFED
00F2
001F
FF96
0055
0082
FFA2
00BE
002B
0037
0012
FFD7
FF4C
FFFC
0071
FDA9
FFC6
FFB9
004F
00CB
0054
FFCB
000D
FFE9
FFD1
FFB6
00C4
0039
0049
FF14
000D
009D
005A
FFCE
FFD8
FFFA
FFAB
00C3
FD3F
FFF0
FF79
002B
0030
FFC8
006F
FF39
FF9A
0063
FF82
FFB7
0028
0063
FFE7
0059
FFB2
0005
00AD
FFFE
002A
FED5
004B
001A
034A
0003
FFA9
0040
0003
004F
FF8F
0026
0114
FFDE
FFC2
FFAB
FF22
FFD0
002B
FF4D
FFC9
000D
004E
FF2C
FFFD
FF35
FFF4
001D
FC81
FFEF
0005
006A
FFB3
FF20
0020
009E
00B9
014A
003A
00C7
0042
0094
007B
002D
00C5
FFB6
0049
004A
0065
0025
FFD8
FF9D
FF7E
FF3E
0054
0006
004A
0010
FFA4
0007
0077
FF96
003F
01AA
FFC7
000D
FFB7
FFE5
0011
FFAC
FEBA
FE83
0023
003F
0007
001E
0062
0040
FF6E
FFFA
0041
FFC1
0071
004F
000B
0144
0108
FF70
0027
0006
0069
014A
FFF1
FFE8
00A0
FFB5
00D4
0049
FFB1
FFA8
FFE6
000F
00AD
0090
0045
0002
FFAF
FF86
FFEE
005B
008D
012F
FFE7
000D
FFCB
00BA
0013
0016
FFD2
001A
FF31
0031
FFC4
0021
00CA
FFC3
0050
FFD1
0016
FFBE
FF62
0050
FFC7
FF7C
002D
0077
FFC4
003D
0032
FFB4
002E
FFFA
FF70
FFB6
FF84
FFA5
00CF
FFD8
FF70
FFE1
0033
FF0D
00E7
FFC3
FF63
FF59
FE81
FF2A
0007
FFEC
00DE
FFA8
FFF0
FF6D
007B
00CF
FF27
000D
007F
00AB
008A
0069
FF4E
FF4D
00C1
001A
008D
FFE9
FFAE
FFEF
FEDC
0020
