FFFE
FFD7
000B
0003
0005
001A
FFD3
0006
000D
0000
0005
FFFC
0007
0001
FFE1
0005
0001
0006
002E
0004
0002
FFFC
FFFA
0015
0002
FFFB
002E
000A
0008
0008
FFEC
0005
0000
0002
0008
0002
0000
0009
FFFA
000E
0005
0001
0005
000C
000E
0003
0015
FFCE
FFFE
FFFC
0007
0008
FFFD
FFF9
0002
FFE1
0004
FFFD
0000
0022
0007
FFFE
000E
0003
0002
0008
0000
FFFB
FFEB
0013
FFF9
0007
0004
000E
FFF6
000E
000C
FFEF
000A
0011
FFFA
0016
FFF7
FFFA
FFFF
FFFD
FFFB
FFFA
0003
0000
0020
FFF6
000F
FFF9
0019
0004
0020
FFE9
0003
0003
FFE9
FFF6
0004
001D
FFF7
FFF3
FFED
FFEF
0008
0011
FFEB
FFFD
0010
FFFA
0002
0017
0001
000F
0017
0005
FFF7
0004
FFE4
FFFC
0008
FFF9
FFF3
FFFF
FFE4
FFFB
0001
0012
FFE4
FFF4
000E
0012
0001
0015
000E
FFDD
FFFD
0010
0003
001F
FFFF
0004
0002
FFF5
FFF6
0001
FFEF
FFFF
0001
FFFD
FFF7
FFED
0011
FFE2
0001
0005
0014
001D
FFEF
FFF8
0002
FFE0
FFFA
FFF6
FFE9
FFEA
FFF7
0007
0003
000E
0025
FFFA
FFEF
0007
0014
FFE5
FFF9
FFF9
FFF6
0008
FFFE
FFFB
0020
0004
0004
FFF6
0008
0006
FFFA
0003
FFFA
0013
0003
0001
0005
FFDA
0002
FFF9
000B
FFF6
FFE6
0007
000E
0015
FFDC
FFFB
0003
000B
FFDF
0000
000F
FFEC
0003
0001
000F
FFDE
002A
FFFA
000A
0018
0004
FFF5
FFEA
0006
FFFC
0001
FFF0
000D
0009
001B
000C
FFF2
0002
FFFD
000D
0005
FFFA
0006
FFFA
0001
0002
0011
001E
0011
0015
0014
FFF2
FFFE
FFE7
FFE3
FFF9
FFD7
0016
0002
000D
FFF6
FFE4
0005
FFFB
0017
FFFC
FFF4
0011
0004
0012
0003
FFF8
FFFD
0015
FFED
FFFE
0003
0015
0003
FFFC
FFFB
FFED
FFFE
000B
0017
FFD9
FFE8
0019
FFFB
FFF6
0003
FFFF
0009
FFFC
FFFB
FFFF
FFFD
FFF5
FFEA
FFE5
FFF7
0001
FFFC
FFFA
FFFA
001E
0015
FFF4
0007
0002
0002
FFFF
000D
FFF8
FFFD
000C
FFFF
0002
0010
FFF3
000D
FFF5
0005
0005
FFF4
FFF4
000E
000C
FFFF
0000
000B
FFE7
000B
0004
FFE7
0001
0013
0007
FFFE
FFF3
0010
FFF6
FFFF
000C
FFF9
001C
0000
FFE1
0005
0013
0006
0003
FFFD
FFE9
000A
FFEC
FFFC
0014
0019
0019
0002
FFEA
002A
FFEF
0010
0003
FFDE
FFEC
000E
0006
FFFB
FFF8
FFD2
FFFE
FFED
0002
0004
FFF4
0001
000D
FFFA
0000
0012
0011
000D
FFEE
0002
000D
FFDF
FFF0
0003
0001
FFF9
0006
FFD3
FFFD
0000
FFF9
0031
000A
0002
FFF7
0010
FFF5
000B
0021
FFFB
FFF9
0013
0009
FFFE
000E
FFE0
FFFE
FFF0
FFFF
0006
FFE0
0009
FFFD
0000
0022
FFF2
0014
000D
FFF6
0002
000D
0004
FFF1
FFE9
000C
0000
FFFF
0019
002B
FFFC
FFE9
FFFF
FFE2
0006
0004
0012
FFED
FFFE
FFF4
FFF5
0005
0013
FFF3
FFEA
FFEF
0004
FFF6
FFF7
FFE5
0014
0005
FFF3
FFEE
FFEC
FFDB
0012
0023
0002
0029
001A
001A
FFFC
0006
FFFB
0004
0004
FFFF
0002
000D
FFF8
FFF8
000F
000D
FFFA
FFF9
FFFE
0008
0006
000F
FFEE
FFE6
FFFF
000D
0012
0018
000D
000A
FFEF
0013
FFE4
001B
FFF1
FFDF
0001
0014
FFFA
FFE6
FFEA
0009
0012
001B
000D
001A
FFE5
000E
FFF7
0000
FFEA
000B
0011
0018
FFDF
FFF6
FFD9
FFFA
000D
FFE9
0010
FFFC
FFFB
FFEC
0012
FFFD
000A
FFE9
FFF9
0007
FFF8
FFF8
0003
FFE1
FFFF
001A
0018
0005
0014
0019
0011
0002
0006
0025
0000
FFF9
FFF2
FFFB
FFFD
0009
001A
FFE0
FFFA
FFF1
0012
FFF9
FFF7
000B
0027
FFED
0000
FFEA
FFFF
0010
0014
FFFF
0023
000C
FFF0
0021
FFF2
FFF7
0023
FFFA
FFF7
0001
FFFF
FFFF
FFFD
FFFA
0001
0043
FFFD
FFFE
FFFD
FFFE
0000
FFF6
FFFF
0000
FFFD
FFF2
FFFE
FFFF
FFF5
0001
FFFC
0000
0029
FFEA
FFFA
0000
FFFA
FFF5
FFFD
0000
FFFB
FFFE
0030
0002
FFFE
FFF8
FFDE
0000
0000
FFFF
0032
FFF9
FFFF
FFFE
FFF3
0001
FFFD
0000
FFF9
FFFE
FFB1
FFFF
FFEF
FFFF
FFFB
FFFE
FFF5
FFFF
FFFF
0028
FFFF
000B
000E
FFF6
0004
FFD3
0006
0008
FFF5
FFFF
FFEE
FFD2
0000
FFF4
FFF6
0002
003A
000C
0006
FFFB
FFFA
FFEF
0002
FFFD
0000
0003
FFFD
FFE0
0002
000A
0015
0004
FFFE
FFE4
0008
FFEE
FFFE
0015
0017
000F
FFED
0000
0010
FFFF
003B
0010
FFDE
000A
0005
0007
FFE2
0000
0005
FFF7
FFD1
0012
0007
FFF8
FFFC
FFF2
FFFE
FFFD
0000
0037
0023
FFF7
FFF1
0008
000B
0008
FFEE
0007
FFFF
FFFF
0010
FFFB
FFF7
000B
0004
FFFA
000B
FFFB
FFF1
0003
FFF5
000F
FFFF
000D
FFFD
FFF6
0002
0002
0011
0001
FFEF
FFEB
FFF1
000D
FFFF
FFE9
0000
FFF7
0005
FFED
0011
FFF7
000B
FFF1
0002
0028
0001
0004
0004
0028
FFE7
0008
FFE7
FFFF
0008
FFFE
0002
0000
FFFE
0009
FFF5
FFF5
FFF8
0003
FFF1
0016
0015
0007
FFFD
0003
0001
000F
FFEB
FFF8
000A
0005
FFFA
0021
FFEF
FFE6
FFFA
FFDF
FFE3
FFEB
0004
FFF4
0002
FFF5
0006
0008
0003
FFE4
0001
0008
0001
0003
0002
FFFC
0004
FFF5
FFFF
FFF9
0013
0026
FFFD
FFFC
FFF0
FFEA
0006
0007
0019
FFE9
0012
FFE6
0010
001D
FFFF
FFEC
FFEF
0012
0015
FFEE
FFEB
FFE3
FFF8
FFE1
0013
000C
0013
FFFB
0012
000B
FFFF
000B
FFF7
FFF7
0003
FFF6
FFFE
0002
FFF1
0007
000D
FFDE
0003
0002
0005
FFF8
0003
0006
0015
0002
0014
0001
FFEB
0006
000C
FFFD
0007
0006
FFE9
0003
FFFB
0008
FFF2
0001
0019
0006
000D
0001
0008
FFF4
0002
001D
000D
0009
0000
0005
0003
0004
FFF1
0009
0008
FFFF
0022
FFFF
0007
FFFF
000A
0004
FFFF
0005
0004
0006
FFF4
0001
001C
000B
FFF6
FFEF
FFFD
0004
0003
FFFE
0000
0012
000D
FFFD
FFF7
FFFC
000E
000B
FFFE
FFF8
FFF6
FFD1
0030
FFF8
FFF6
FFDC
FFF4
0019
FFB8
0008
FFEA
000C
FFED
FFF1
0004
0027
FFBF
0017
FFDC
0003
0021
0006
FFD6
FFEB
FFF3
0013
001B
FFED
FFDB
0008
FFF5
0008
0008
0019
FFF9
0006
0007
0009
FFFE
0024
0020
FFCF
0000
FFFA
0005
000D
000C
FFF7
0007
0002
0009
FFFD
FFFC
000D
0001
FFCB
0006
FFFE
0004
FFE3
000A
FFFA
000A
0013
0002
FFE6
0019
0018
FFFD
FFFE
000D
FFFB
000D
FFF0
FFFB
FFF5
FFE2
0002
0003
FFF2
FFF8
0006
FFEF
0005
0017
FFDE
0019
0012
0023
0004
FFFB
0002
FFF8
FFE9
FFFA
FFDF
FFF7
FFF2
0008
FFF8
0014
FFF0
0003
000F
000E
001D
0015
FFFC
FFFB
0027
FFF4
0000
FFFB
FFFD
FFDF
FFFE
001C
0020
000E
FFDB
FFE0
FFFF
0025
FFFD
0008
0004
0002
0006
0003
FFCF
0006
0008
FFFE
FFFD
FFED
FFEA
000D
000F
0008
FFEA
000B
0019
0001
FFE5
FFE6
FFEF
0000
000F
FFEF
0008
0004
0007
FFE0
0002
0005
FFF5
0008
000A
FFFC
003A
FFFB
0011
FFEA
FFF7
FFE3
0005
FFFE
FFF6
0010
0008
0024
0007
FFFE
FFEA
0020
FFDD
0000
0007
FFF0
000F
FFE7
FFE8
0005
FFF6
0018
0012
0022
001B
0004
0002
FFF1
FFFC
0000
FFFF
0005
FFF2
0002
FFFC
FFF5
FFFD
0007
0007
0003
FFF8
FFF4
FFF1
0003
000C
FFFB
FFF9
0008
0010
FFF3
0015
001A
0005
000F
0014
0000
0011
FFE4
000D
FFFD
0004
FFFB
FFFB
FFFC
FFF0
FFFC
FFEC
0000
FFFD
FFF8
0016
000B
0017
FFFC
FFF3
FFFE
001E
FFF2
0008
0000
0006
FFF5
FFF9
FFFA
0009
0000
FFF9
FFF4
FFFA
FFF1
FFF3
0016
0022
FFFE
FFF1
0008
FFDD
FFFD
0010
000B
0005
FFF8
0005
FFFD
FFF0
FFC7
FFF9
0002
001D
FFEC
FFFA
000A
0028
0013
0003
FFEF
0018
FFE3
FFE9
FFFA
0002
FFEB
0002
FFFA
0017
000D
0015
0009
FFF5
000A
FFF5
0000
0011
003B
FFF7
FFF9
0012
FFF9
0010
000D
FFE6
0003
000A
000F
FFFC
FFE9
000A
0006
0013
FFEF
0006
FFF9
FFE4
FFF8
FFFA
FFF6
FFEE
0004
FFF9
0025
0010
FFFD
0000
FFF0
0007
FFDE
0002
FFED
0008
0015
0014
0003
0002
FFEE
FFE8
0017
FFEF
0019
0007
FFFC
FFF1
000F
0008
FFFB
000F
0004
FFF8
0009
0009
0007
000E
0004
0003
FFFB
0012
FFF6
FFFF
FFD4
FFFD
000A
FFEF
FFFA
FFFA
0003
FFF9
FFF2
0002
0006
0001
FFF5
000C
0005
FFF5
FFFB
FFFC
0008
FFF5
0009
FFF2
0012
0003
FFFC
0020
FFE6
001B
FFFF
FFF4
FFF5
FFE0
FFF4
FFF3
FFE4
0005
000E
FFFF
0004
0003
0017
0008
0000
FFFC
FFFC
FFFB
0002
FFF5
0003
0004
0004
FFFC
FFEB
0016
FFF7
0005
FFF9
0009
FFFE
000D
0008
FFFE
0009
0000
0013
0002
FFF7
0017
FFF2
000B
0005
FFF7
FFF6
0000
FFF6
FFFF
FFEC
FFF9
FFFC
0005
FFF0
FFFB
0013
FFEC
0003
FFEE
FFF5
FFFE
0002
FFEB
0011
0001
0002
FFE1
0009
0001
FFFB
FFF7
000E
000C
0005
FFF5
FFFC
FFFE
000D
0008
FFFF
FFFC
FFFA
000F
0009
0012
0002
000B
FFFD
FFF5
0016
000A
001D
0008
FFFB
FFE0
000D
FFFC
FFFA
0020
0006
FFFA
FFF5
0008
0001
0008
FFF4
FFFF
FFE8
0026
FFFB
FFFF
000D
FFFB
001E
0016
000F
FFF2
FFFF
FFF9
FFCE
0003
0007
FFFD
0018
FFEF
FFFF
FFF9
FFFD
0009
0001
0003
FFF6
FFFF
0006
FFFE
FFFC
FFFC
FFFB
FFFC
0000
0017
0005
FFE8
FFDC
FFF7
0005
FFFB
0014
0011
001D
FFFC
FFFA
0026
0010
0009
FFDC
000D
FFEF
FFD0
FFEE
FFED
000E
0011
FFFA
0024
FFF7
0014
FFC3
0006
0009
0006
0004
0025
FFFF
FFF8
FFE5
FFF9
000F
FFD9
0006
FFFF
FFFF
FFFD
0018
FFEF
FFFB
000E
FFFA
000D
0002
FFF4
FFF9
FFE3
0002
000D
FFFA
FFE9
FFE8
0015
0018
FFF3
0006
000B
0000
FFF5
0008
0007
0002
0006
000E
FFE7
FFDE
FFDC
0014
FFFA
0002
0011
001E
FFDE
0013
FFF7
001E
FFFF
FFF9
0008
0024
0001
0012
0008
FFEC
FFDE
0012
0000
FFF5
FFFD
FFFB
FFFD
FFF5
FFFE
FFFC
003D
FFFC
FFFB
FFFE
FFFD
FFFC
FFF9
0003
FFFE
FFFC
FFEA
FFFD
0001
FFF0
FFFD
FFFB
FFFB
002E
FFED
FFFA
FFF8
FFFA
FFF6
FFFE
0002
FFFE
FFFB
0039
FFFE
FFFF
FFFB
FFEF
FFFF
FFFE
FFFA
0019
FFFA
0000
FFFD
FFFB
0000
FFFF
0000
FFF7
0001
FFD4
FFFD
FFEF
FFF8
FFFD
FFFB
FFF2
FFFE
0000
0012
0001
000D
FFFC
FFFF
FFEF
FFFA
FFEE
0000
000A
0003
FFF8
0001
FFF3
0007
FFE0
0002
0001
0006
0002
0009
FFFC
000F
FFFD
0001
FFED
FFF5
0000
0014
001D
FFE9
0009
000B
001C
FFF5
FFFC
FFFF
0000
FFFD
000B
0007
0003
0001
FFE9
0000
FFF9
0018
FFF2
0026
000D
000F
0007
0001
FFD9
FFE4
0007
FFF4
0001
FFFC
FFEC
FFF1
000B
0010
000A
FFFE
FFFE
FFF4
FFF6
FFFD
000C
FFFF
0015
0002
000B
0006
0006
000D
0015
0009
0011
FFF6
FFE6
0014
FFFD
FFFB
FFFF
0007
FFFD
0008
FFFD
001F
FFF8
0014
FFE6
0005
0005
FFEA
FFFD
FFF8
FFFE
0004
FFFC
FFE9
000B
FFE6
0032
0005
0009
FFE8
FFF6
FFE7
FFF5
0014
FFFF
0002
000A
000E
FFD4
0002
000B
000D
0007
FFF9
FFFE
FFFC
FFF8
0008
000C
FFFF
FFFF
0007
FFF5
0008
FFF5
0019
FFE2
FFFD
FFD7
0001
000A
FFE1
0005
001D
FFF4
FFEB
0001
0004
0002
0005
FFF4
FFE4
FFFC
000D
FFF6
FFC9
FFFC
FFEE
0010
000E
001B
001C
FFFD
0010
0010
0011
FFFC
0006
FFF0
FFE6
FFE1
0006
FFF9
0002
000B
FFF8
FFF3
0006
FFFE
0017
0023
0003
FFEE
FFF3
FFF2
001F
FFEA
001D
000D
0018
FFF8
0017
FFF0
FFFE
0024
FFE6
FFFA
FFE7
FFDA
FFFE
FFFD
0001
0029
0004
FFE3
0005
FFE2
000E
000E
0011
0002
FFE5
FFD9
FFFE
FFFB
0007
FFFC
FFE8
FFE4
FFD7
FFFD
FFFD
0019
FFF8
0012
FFEB
001F
000E
FFC4
0001
0007
0017
001B
FFDF
FFEF
0023
003A
FFF7
FFE8
0004
FFF7
0001
000D
0015
0009
0019
FFF2
0031
000B
001D
FFF2
FFDD
0010
0009
FFFC
FFEA
0016
FFEB
000F
FFFF
000F
0004
FFEE
000E
FFF1
0011
FFEA
FFFF
FFEB
000C
FFFD
0014
0009
0011
0000
000C
001B
FFF0
0003
0010
FFFD
0000
FFFB
FFFF
0003
FFFC
FFF7
0015
FFF6
FFE5
0005
FFF2
FFF9
FFFA
FFFC
0003
000C
FFF3
FFFF
FFF7
0008
FFF8
0003
FFF9
FFFE
0004
0010
0004
0002
0008
0003
FFFA
FFFB
FFEE
000A
0005
FFF4
0001
FFEB
FFEC
FFEF
0005
000C
FFFE
FFF6
0014
0009
000D
0003
FFFA
000B
0000
FFF1
FFF3
FFF6
0000
0008
0011
FFF9
FFEC
0022
FFFB
FFF6
FFE7
FFFB
0001
FFE8
FFFF
0000
0013
0021
000A
0010
0004
FFFB
FFFC
0001
FFE5
0003
FFF3
0004
0000
FFF7
000C
0008
FFFF
0004
0010
FFE9
001D
FFF8
000E
0003
FFFA
FFF2
FFFF
0001
FFE9
0004
0007
0008
FFF2
0006
FFFF
0010
0005
0006
000F
001E
FFFB
0009
FFF5
FFF0
0015
FFF8
FFF2
FFFF
0000
000E
0006
FFF9
0005
000E
FFFE
000B
FFE9
0004
0002
0003
0000
FFEF
FFF3
FFFA
FFDD
000D
0008
FFFA
000F
FFFE
FFFD
000B
FFF8
FFF8
000E
000B
FFFA
FFF7
0001
FFFF
000A
FFF6
FFE7
0010
FFDF
0020
0002
000F
FFF9
FFF3
0003
0002
FFFB
001C
0003
0002
FFFA
FFFD
0000
0008
FFF4
0000
FFFF
0003
FFEA
0000
0003
0003
000D
0008
0009
FFF2
FFF7
0006
FFF6
0010
FFDF
000D
0010
FFE3
FFFE
0030
FFFC
0001
FFFA
FFFF
FFE2
0001
000C
FFF8
0004
FFE8
FFEC
FFEF
001C
000D
000E
0003
FFD4
FFF6
0004
0009
FFE6
0017
0017
FFEF
0002
FFE9
FFE3
0006
FFF4
001F
001A
0004
0003
0017
FFED
FFFD
0001
000D
FFEF
FFF8
002A
0005
FFF3
FFEB
FFF9
0002
000C
FFFE
FFE8
FFEB
FFFC
FFF8
0002
000A
FFF8
000D
0003
FFF8
FFF5
0012
FFDE
000B
FFFC
FFF2
0006
0003
001A
0001
000C
0002
0002
FFFA
FFE9
0008
0009
FFFA
0010
0013
FFF4
FFFF
0000
FFE5
FFF2
0013
0002
000C
FFEA
FFFA
FFFE
0008
FFEC
0008
000B
FFF7
0003
0018
000E
0005
FFFD
0012
0000
0013
FFFB
FFFD
0008
001B
FFF8
FFE8
0007
FFF3
FFFD
000C
0005
001A
FFC7
FFFE
0000
FFFA
0005
0001
FFFF
0000
0004
FFFB
FFFA
0000
0008
0001
0002
FFF7
FFF9
0010
FFFA
FFEC
FFFA
FFFD
FFFF
FFEC
0009
0000
0004
FFF9
FFF6
002A
000E
FFF1
0000
FFDB
FFFF
000D
0002
FFE5
FFFC
FFF9
FFF9
0033
0002
FFFB
FFFE
FFFC
0006
000F
000B
0012
0007
0004
FFFC
0003
0003
0001
FFEA
FFFC
FFE2
0005
FFEF
FFFA
FFDE
0007
FFF8
001B
FFF1
0028
FFF1
FFE3
0012
001D
0026
0008
FFF0
FFF2
0005
0011
0007
0004
FFFD
FFD2
FFF9
FFFA
0021
0012
0009
0019
001A
0021
0001
0007
0005
0002
0004
0029
FFE2
0012
001C
FFEB
FFDA
FFE5
FFE9
000C
FFEB
0004
FFE9
0002
0017
0000
0015
0014
FFCF
0012
000F
FFF0
000D
0005
0021
FFED
FFEC
001E
0015
0002
0009
FFF7
FFF9
0006
0004
FFF9
0007
0002
FFFF
FFED
FFF8
FFDD
0006
0006
0004
0008
0002
FFFB
0007
FFFD
0013
0010
000C
0000
0010
FFFF
FFE7
0002
0006
0009
FFF2
0023
000A
0001
FFD9
000D
0005
0003
FFE6
FFEF
0007
0008
000A
000D
000F
0006
001F
001B
FFF1
0008
FFDE
000D
FFFB
000C
FFFC
FFEF
FFFE
0005
FFEB
FFDF
000E
FFFA
0016
000C
0001
FFE3
FFED
0001
0006
FFDA
FFFF
FFEC
FFF9
0003
FFE2
0032
FFEA
FFEB
0012
FFEC
0000
0017
0017
FFFE
FFE5
000F
FFF8
FFFF
000B
0042
0005
FFF6
FFF7
FFFA
0019
000C
FFE2
0001
FFD0
FFF2
FFF9
0022
FFF8
0016
FFF7
FFFF
0017
0005
FFFA
0003
FFF9
FFEF
0001
FFEC
FFF6
0010
FFFF
0001
0005
FFE8
000C
000F
FFF5
FFFC
000B
FFEF
FFFF
FFF3
FFFE
FFF9
0008
FFFC
0001
0003
0006
0002
000B
FFEB
FFED
FFF6
FFE9
000F
0004
0000
0007
FFF4
001A
0001
0005
000A
001E
FFFA
FFF5
000A
FFF0
FFF9
000F
FFF0
FFFD
000A
FFF0
0001
FFE5
0003
0012
FFFE
000B
FFFC
0001
0008
0011
FFFE
FFD8
FFFB
0003
0009
0015
000A
0016
FFFD
0005
FFF7
0004
0017
FFF5
FFEF
FFEF
FFD6
000D
FFF3
FFF7
0017
FFFA
FFF9
FFF0
0013
FFFA
0014
FFFD
0019
0003
001A
000D
0012
FFF1
0001
000C
0000
FFFC
FFF8
FFFB
0003
FFF5
0015
FFF1
0001
FFFF
FFFD
FFFA
FFD1
0005
FFF0
FFF9
FFF7
FFFD
FFFB
0008
FFF1
FFFC
0012
0007
FFF4
FFF1
000B
0022
FFF7
0012
FFF9
FFFE
0012
0005
000B
0000
FFFF
FFF1
FFF6
0005
FFF7
0012
FFF0
0007
000A
0007
000E
FFFE
FFF6
001A
000C
FFE3
0011
0008
FFDE
FFFD
0006
FFFE
FFF6
000E
0008
0005
FFE5
0022
FFF0
FFFF
FFD0
FFE9
0001
FFF3
FFF9
001C
FFFD
0005
FFF3
FFF7
0000
FFE6
FFF1
FFF2
000C
0033
FFFE
FFEA
000B
FFFC
0008
0022
0019
FFDB
0008
FFF9
000B
0003
000A
FFFA
001A
001F
FFF0
0005
FFF8
0019
FFE8
0000
FFF9
FFCA
FFFF
0013
0029
0002
FFD8
0009
FFFF
FFFC
FFD8
001A
FFF6
0008
FFF4
000B
0001
002C
FFEE
0020
0005
FFD5
FFE9
FFD6
0001
FFFE
0001
000B
FFFE
0004
000F
0002
FFFF
0007
FFFD
0007
0001
FFFB
0002
0003
000E
0009
FFFC
FFED
FFF0
FFFF
FFF1
FFFB
FFF0
FFF8
FFF7
FFF1
001E
FFF9
0002
FFE6
0018
001C
FFFB
0002
FFF9
0009
FFFD
0016
FFF9
FFF3
FFFD
FFE8
000D
FFF7
0000
FFE6
0008
000E
FFD4
0026
0004
0002
0002
FFF9
FFDA
FFD5
001A
FFFE
FFF3
FFFA
000D
0014
FFF3
FFFD
FFFE
0010
0009
0024
FFEA
0020
FFFD
0000
0012
0020
FFDD
001A
000F
0008
0012
002E
0002
FFEC
FFFB
FFEC
FFFB
0007
FFD9
0003
0002
0020
001B
0019
FFF8
FFF7
FFE7
FFF2
FFE5
0002
FFFF
FFDA
000E
FFC3
0002
0008
0002
0005
002D
0000
001C
0007
0005
0010
0009
FFFA
FFF7
0001
0017
FFFF
0005
FFE5
0014
FFDB
FFFD
0029
FFFD
0012
FFFA
0004
FFF0
0001
FFFF
FFF1
FFF9
000C
FFFF
0011
FFFB
0009
FFF4
000D
0000
0015
0006
0002
FFFB
0009
0013
FFFF
000B
000E
0002
0000
FFF7
FFF9
FFD8
FFF0
FFFF
0010
FFE7
FFE7
FFFB
0005
0007
0004
FFFF
FFF9
000B
000E
0007
001C
FFF4
FFF6
FFF5
000C
0005
000F
0005
0007
0002
FFFD
FFFC
0001
FFF4
FFF6
FFF2
FFF0
FFE4
0007
0004
FFF6
0020
FFFE
0005
FFF1
0002
FFEE
FFFB
0008
FFFB
FFF6
FFFC
000D
0009
0000
0006
001A
FFDD
FFE9
FFFD
FFD9
FFED
0019
FFF6
0001
FFF9
FFFE
000B
0002
FFFF
0007
FFF7
0011
0015
001B
0007
0021
FFEE
FFDF
000C
FFEC
000F
FFE0
0007
0029
FFF3
0002
FFFB
0011
FFE7
FFF1
0005
FFF0
001C
FFF6
0016
0012
001D
FFF8
001D
FFF2
FFED
FFDF
FFFE
FFE2
FFE0
001C
FFEA
FFE6
FFF9
FFF7
0017
0004
FFFA
000E
0011
0001
001D
001D
FFF2
000F
0011
FFEA
FFFB
FFE5
002E
002B
0010
0007
FFEF
FFF4
000C
0010
FFFA
FFE5
FFE7
FFF5
0001
FFDF
FFE0
0003
FFF4
0024
FFE8
FFF1
0002
0011
0017
0012
0018
0010
FFF3
0006
FFED
FFF9
0004
0003
0006
FFE2
FFFF
002D
FFFC
FFFE
FFF8
FFFE
0003
FFFA
FFF9
FFFC
0007
FFFB
FFFA
FFF7
FFF9
0002
FFFF
0004
0021
0003
FFF9
0008
0004
FFFB
FFF8
FFF9
FFFC
FFFB
0031
0001
0003
FFFF
FFEF
0003
0005
0001
0014
FFF9
0002
FFFC
FFE6
0000
FFF9
FFFD
FFF1
0002
FFD8
0001
FFEC
0004
0000
0001
FFF7
FFF7
FFF8
000F
0004
0001
FFFD
0006
0004
0000
0008
0000
FFF9
0000
0007
000B
0000
0002
0001
0004
0003
0009
FFFF
001A
0007
0001
FFDA
0005
0019
0004
0013
FFFE
0007
0001
FFFE
000C
FFFC
0002
0008
0003
FFF4
FFFF
0008
0005
FFF3
0005
FFFC
FFFE
FFFF
000D
0000
000A
001D
0007
0001
FFF8
0003
0002
0002
FFFD
0011
0008
0007
FFFF
0008
0002
0002
0003
0002
FFF0
FFFB
FFF5
000C
0011
FFF1
FFF5
0000
0001
FFF8
0005
FFFD
FFFB
0016
0005
0001
0012
FFFF
0004
FFF1
FFFE
0002
FFF6
FFF2
0003
FFFC
0004
FFF2
FFEE
0008
FFFE
FFFE
001A
FFE5
000D
FFFD
FFF4
FFE3
FFDE
FFE8
0018
FFFE
000E
000F
001B
0007
0015
FFF6
0006
FFF7
FFFD
0015
0011
FFF4
FFF7
0016
0016
FFFE
0009
0006
FFF8
FFEC
0010
FFF6
FFF8
FFED
000F
0016
FFFE
0000
0009
0005
FFFF
FFF9
0011
FFF3
FFF2
FFEE
FFE4
FFE6
000F
0006
FFE2
FFD6
FFEE
0001
0016
000A
FFF9
0002
0003
FFF6
001A
000A
FFEF
0015
0005
0001
000D
FFFE
001C
FFFA
000A
FFF3
0003
FFE4
0001
0003
0006
FFEC
FFFF
0008
0016
0008
002C
0013
FFFC
FFF5
FFFF
0018
FFF7
0008
FFEC
FFE0
FFFE
FFF8
0006
000D
0004
0008
0021
FFF6
0007
FFFF
0018
0002
0003
000B
0004
0006
0007
FFFE
FFE1
FFF1
0002
FFEC
FFEC
FFF0
0001
0005
FFF7
FFF4
0002
0003
FFFC
FFE7
FFFB
FFF1
FFE2
0025
0007
FFFA
001E
0004
0000
FFEE
FFEB
FFFB
FFFE
0001
FFF4
FFF4
FFF7
FFEA
0001
0017
000B
FFF3
0020
0016
FFF5
0004
0004
0018
0004
FFF8
000B
FFF1
0004
0005
FFF2
FFFB
FFE6
0000
FFE8
0014
FFF2
0010
0006
FFED
FFF9
FFF6
000E
000B
FFF2
0011
FFF8
FFF3
FFF4
002B
FFFC
FFFC
0013
0004
000C
0005
FFD8
0002
FFED
FFD7
FFFB
001D
0004
FFF5
0001
0010
FFF3
0001
FFF1
FFF7
000C
FFFB
0008
0003
001A
0019
FFF1
000E
0000
0002
0012
0007
FFDD
FFD0
0030
FFEB
FFDB
FFF1
0000
0002
0028
0005
0007
0025
0010
FFF8
FFF7
0025
0016
0009
0008
FFE3
0027
0006
FFFB
FFF9
0007
FFFB
FFFB
0013
FFE1
FFF4
0005
FFFF
FFD1
FFF9
000D
0004
FFF2
FFEA
FFFA
0006
FFDC
0015
FFEF
FFE2
FFDA
000A
0012
FFF9
0017
0000
FFF8
FFF9
FFDE
FFDC
FFFF
FFF4
0002
0006
FFF5
FFFB
0008
002B
0004
FFFF
FFFD
0014
0000
FFFE
FFF5
0020
000B
FFFD
FFF5
FFE5
FFF9
FFEE
000B
FFEC
0025
FFFE
0007
001D
FFE5
FFF1
0001
000A
FFF4
0011
0019
FFEE
FFF8
0017
0015
000B
FFF3
0007
FFFB
0013
FFE4
FFFE
FFF8
FFFC
FFF1
0002
000B
FFF4
0000
001A
0004
FFF8
FFF1
FFEF
FFEB
FFFA
0009
FFF6
001F
0003
0009
000E
FFF1
FFFA
FFC8
FFF2
FFE1
FFFE
001A
001D
0007
0017
FFFF
FFFC
0016
000A
0030
FFFF
0007
0005
FFEA
FFDF
FFF8
FFE6
000C
000D
0001
0006
0002
0018
FFE7
0008
FFD2
FFFE
0007
0006
0003
0005
0008
0006
FFFD
0008
0001
0007
0006
FFFE
FFFA
FFE0
000A
0001
001E
0004
0005
FFF9
0008
0006
FFF5
0004
FFFD
FFF2
0000
FFFD
0000
0043
000D
FFFE
0004
FFC5
FFF9
0001
FFF6
FFFA
0006
0007
0005
FFF4
0002
0036
0003
0030
0000
FFFB
0007
000D
0002
FFFF
FFD6
FFF8
0018
FFEA
FFD6
FFFA
000D
000F
0002
FFFE
0001
FFFE
FFF5
000A
FFF8
FFEA
0016
FFE7
0017
0021
FFF6
0019
FFE3
0001
FFF3
001E
0003
0001
0016
001A
FFE6
FFED
0012
0039
000C
0007
FFF9
0004
0008
0013
0005
0005
000E
FFF1
FFDE
0000
FFEB
000A
002C
FFFA
FFEC
FFFD
FFFA
000A
001F
000E
0009
000B
FFF5
FFFF
0004
FFED
FFDD
FFFD
000A
FFE9
FFFF
0009
FFFF
0017
0009
FFFF
0004
0019
FFFE
FFF4
001C
FFE9
FFF1
FFEC
0009
FFF6
0016
001C
FFEF
FFF7
FFF5
FFFF
0017
FFE6
FFE1
0001
0007
FFEA
0024
000B
FFEA
0006
FFED
0017
001B
0001
0022
FFDF
FFF6
000B
FFF7
FFF7
FFE9
FFF1
FFF6
FFF8
0012
000B
0008
FFF3
0017
0009
0007
000F
0014
000A
FFF0
0014
FFF1
FFED
0016
FFF0
FFE8
0020
000A
0006
FFF4
FFF0
0012
000C
0005
FFF3
FFFD
0003
0020
0003
000C
0001
0021
FFF5
0008
FFF6
FFF4
FFD9
0003
FFFD
FFF8
FFFD
000D
FFFF
000B
0001
FFE7
0015
0012
FFF3
0006
0006
FFFF
0002
FFFC
0015
FFE0
FFEB
FFEF
0008
FFFD
0005
0002
FFF1
0005
0001
0000
001A
0006
0003
FFF9
FFFC
0006
0008
000A
0005
FFE6
FFFC
0009
FFF7
0002
0008
FFF1
0001
001A
FFFC
FFF9
FFF9
FFFC
0004
0002
0003
000F
0005
FFFE
000D
FFE8
0016
FFEC
FFF7
FFFB
FFF0
0012
FFFF
0010
0002
0005
FFF9
FFF6
FFEB
000F
0004
FFF8
FFE7
FFF5
0002
FFF4
0000
000B
000F
0002
0007
0000
0007
0019
0005
FFFF
0014
FFF6
FFFF
001D
FFFE
FFF1
FFFD
FFEC
0001
FFF3
FFF4
000C
0005
FFF6
FFFB
0011
0009
0006
0007
FFCC
0007
0031
FFF9
001C
0009
FFF8
FFE8
FFFC
0003
0025
000A
FFEB
FFD4
FFFF
0011
0020
FFE3
FFFE
001D
FFCD
FFFD
FFD3
FFE8
FFED
FFFC
FFFE
FFE3
FFDE
FFF1
FFFC
FFFC
0007
0044
0008
FFFE
000A
0015
0006
FFEE
002E
001F
FFFE
FFFB
000E
000B
FFF6
FFF4
000B
0000
FFFC
FFEB
001C
0000
000C
0012
001C
FFCE
FFEB
FFFD
FFF8
0024
FFF8
001B
FFFB
FFFD
0009
FFFF
FFFC
FFF3
FFFF
FFF5
FFF1
000A
FFFE
FFFF
0001
FFFF
FFDC
0003
0008
FFFA
FFFD
FFF5
FFF8
0004
0001
0007
FFFE
FFFA
FFDA
0002
FFFB
0014
FFFC
FFE9
0003
FFFA
FFFB
FFF8
0001
0015
FFFE
FFC1
FFFE
0006
FFFE
0049
001B
0007
0016
FFF1
0003
FFE8
FFFC
FFF0
0003
FFC0
FFFC
FFFD
FFFF
FFF6
FFFE
0001
FFF6
FFFB
004A
FFFF
FFFB
FFEE
001A
001D
0011
FFDE
FFEB
FFFF
0004
0003
0023
FFEB
0013
0019
000A
FFDA
FFE0
0003
0017
0003
0016
FFFE
0000
0016
FFD9
0000
0015
000F
FFFA
000D
FFF8
FFF7
001E
0008
001E
0004
FFF1
FFE5
FFE5
FFF9
FFF6
FFE0
0009
0001
0001
0026
0018
FFE6
FFF1
0014
0010
0007
0008
0004
FFF5
FFF0
000A
0001
FFD2
0009
FFE1
0013
0006
FFF9
0000
FFE8
FFEC
FFF6
FFF9
FFE7
0019
0009
FFF2
0004
FFFE
0027
0002
0006
0017
000A
FFFE
0006
FFD6
000A
0009
0001
0006
FFF0
0002
FFF0
FFD9
FFFA
FFFB
FFF7
001D
000C
000B
0004
FFF8
FFF6
FFFE
0017
0024
0009
0002
0004
000B
FFE9
FFF2
000F
0001
0014
000C
0000
FFF2
FFF5
0017
0004
0002
0023
000D
0004
0005
FFD5
FFF7
000D
FFEB
0004
0007
FFFE
0005
FFEF
000C
FFFF
FFFA
0001
FFF9
000A
FFEC
000B
000C
000E
FFFD
FFFC
FFD7
0003
0007
0025
0008
0000
0009
FFF2
FFFF
FFFF
FFE9
FFF5
FFFB
0007
000B
000A
000C
FFE5
FFF4
0003
0002
0010
0000
FFE8
FFE7
FFE1
0020
000A
0021
FFFF
FFFD
FFF5
0025
FFE7
FFF6
FFFE
FFF2
FFF1
0008
0003
0010
FFFB
0029
FFFA
FFFD
FFF8
0007
001C
0004
0004
0004
0006
0002
000F
0004
0002
0024
0002
0002
0001
0000
0003
0015
0008
0005
0006
FFFF
0006
0003
FFF6
0000
FFF8
0000
0003
0031
0009
0003
FFE4
000A
0006
0002
0000
0002
0005
0001
FFF9
FFFD
0040
FFFE
0005
0001
FF9A
FFEC
0001
FFE8
0008
0003
0004
0002
FFFE
0001
0063
0000
0008
0007
0002
0001
FFFC
0000
0002
FFA3
0002
0009
0000
000C
000E
0004
FFE6
FFFE
0005
FFFB
0013
FFFE
0000
FFF8
FFF0
0031
FFF3
FFFB
FFDA
0003
0005
0013
0003
000B
FFFD
000B
0003
FFF9
0001
FFFE
000B
0019
FFFB
0010
FFF6
0004
FFFF
0006
FFE7
000A
FFF9
FFE0
000F
FFF3
0008
001E
FFEB
FFFB
0002
FFFC
FFF3
0002
0002
0004
FFF9
FFFA
FFEE
000C
0005
0007
FFFC
FFF0
FFFF
0003
0006
0008
FFF6
0003
000B
0008
0006
000D
0007
FFDF
0002
0003
0013
0008
0002
000B
0008
0006
0004
FFFC
0003
000D
0004
0005
000C
0003
FFDE
0016
FFF1
0009
0004
0001
000F
0007
000A
0005
FFD7
0009
0000
FFFE
0027
0007
0006
FFFC
FFD9
FFF4
0004
0007
0014
0007
0004
000E
FFF5
0002
0030
0003
000E
000A
0007
000A
FFF3
0006
0006
FFDD
0005
FFF3
0006
0019
0009
FFDC
000E
0002
FFE3
FFFC
0004
FFDC
000F
0023
0015
000E
FFF8
FFEB
FFF6
FFFB
FFFD
FFF0
0003
FFFB
0000
001E
0000
0005
0022
FFEB
0010
000A
FFF7
FFEE
FFEA
0003
FFFF
FFDC
0000
0002
FFF3
0000
0016
FFF9
000D
0021
000F
FFFC
FFFC
FFFD
0007
0000
FFEA
FFFC
FFF5
0010
000B
0005
0002
0008
FFF5
0009
001A
000D
FFD4
FFD7
FFFE
FFF0
FFF1
0017
FFEE
FFF7
FFF3
FFFA
001F
FFFD
FFFA
FFF2
001F
FFFE
0016
0016
000D
0000
000A
000B
FFF1
FFFB
FFE0
0001
FFFC
FFFE
0015
0006
0021
FFFA
000D
0004
FFF1
FFF1
FFF7
FFFF
0012
0008
FFF5
0011
FFE7
FFFA
0000
0011
FFF8
FFF9
0000
FFE8
FFF7
0016
FFF8
FFF9
FFF3
FFFA
0001
0007
0000
FFF6
FFF6
FFFE
001F
0007
FFF9
001D
FFF6
FFF7
FFE8
FFFD
0010
0002
FFED
FFF7
FFFB
FFF8
FFFD
0009
FFEF
0002
001A
0008
FFF7
0000
000F
FFD8
0005
0000
0006
001C
0002
FFFD
FFF9
FFEE
0018
0004
0003
FFEB
FFE4
FFF2
FFFD
FFEE
FFFB
FFFD
FFF0
0001
000E
FFFF
0016
0018
0014
FFF8
FFFB
FFF3
FFFF
001A
FFF9
FFFB
FFEC
0003
000B
FFFB
FFFC
0001
0002
0023
000B
0018
FFFF
000B
0010
0007
FFFA
0019
0028
FFFD
FFFE
FFF6
FFF5
0000
FFD4
0006
000A
FFF2
FFEF
FFF7
0001
0006
FFF0
FFFA
0008
FFFD
FFFA
0005
0001
0017
FFDF
000A
000A
0003
0003
FFFF
FFF2
000E
FFF5
FFEA
FFEA
000C
FFF9
0000
FFF9
FFF3
0004
0006
FFF5
FFF8
0001
0011
FFFE
0011
FFF3
FFF8
FFFB
FFF9
0013
0009
FFFC
000A
0005
0007
FFF4
000A
000C
FFFE
0008
0005
FFFD
0016
0005
0001
FFFC
FFFD
0012
FFFD
0004
FFF1
001B
FFFC
FFF7
FFF7
FFFA
FFFF
FFEE
FFEE
FFFF
FFF7
FFEC
FFFB
0003
FFF2
FFFD
001D
0010
0013
001D
0011
0011
0006
FFFD
FFEB
0006
FFEC
001C
0003
FFF7
FFFB
FFF9
FFFD
FFF1
FFFF
0008
FFFE
FFF5
FFF1
0011
0007
0002
000D
0015
FFFF
0008
0000
0003
FFFD
FFE7
FFF9
FFEB
FFF0
000D
0002
0000
0000
0001
002A
0003
0002
0002
FFF9
FFF5
FFFF
0005
0003
0004
0000
0003
000A
FFFD
FFFF
FFE8
0003
000C
FFFF
001C
0005
0006
0006
0005
0006
0000
0004
FFFE
FFFE
FFDB
0006
0006
FFFD
0009
FFFC
FFF9
FFF8
FFFA
0008
0006
000A
FFE7
FFF8
0004
0001
0008
0005
0008
FFFB
FFFE
FFFD
FFFF
0002
FFFB
0008
0005
FFFE
0003
0014
0024
FFEC
000D
FFF3
0002
0002
FFFE
FFFD
FFFC
000E
FFDE
FFD4
FFF6
0009
FFEA
0000
0009
001B
FFF3
0002
0004
FFEF
FFEC
0009
0004
0000
000F
0000
FFF3
FFF4
FFF0
FFD8
0000
0011
FFFD
0014
FFF7
0005
FFF9
0001
0000
FFC3
FFFE
0030
001F
FFF3
000B
FFF4
FFD4
000A
0007
FFF5
0000
0007
FFF7
FFDB
0010
FFFB
0021
FFF7
FFF8
0001
FFF8
0004
0008
FFD7
FFFF
0005
000D
0002
FFFE
FFFA
FFF3
FFF4
FFFC
0017
0017
0008
0017
FFF8
000B
FFFD
0002
FFFE
FFFD
0002
0009
FFF6
0004
FFEA
FFEC
0013
001B
FFF8
FFEA
FFFD
0017
FFFD
FFFD
FFFA
0001
0000
FFFB
FFF3
000D
FFEB
000A
0013
FFF3
000D
FFFB
0020
FFF7
000B
0018
FFF7
FFFA
FFFA
FFF7
FFEF
FFF6
FFEC
0000
FFF6
0011
000D
FFFD
FFE4
0010
0010
0016
0003
0022
FFE5
0005
000E
FFF4
000A
FFD1
0002
FFF5
FFD0
FFF1
FFFD
0002
002F
FFF1
FFF8
0003
FFFB
0007
FFF8
0012
0023
FFF8
0007
0015
FFD6
FFFE
FFF8
FFFA
0009
000E
0000
FFE4
FFE5
FFE4
FFF6
FFF2
FFF4
0008
001E
FFF4
FFEF
FFE8
FFFE
FFFC
0019
0006
FFEE
0009
FFFA
FFD4
FFF9
FFFA
FFFF
0033
0009
FFF7
0003
0002
0002
FFFF
FFFF
0000
0003
0001
000B
0000
0045
FFFF
0001
0002
0002
FFFF
0000
0001
0000
0000
0004
0001
0001
000B
FFFF
0005
FFFF
FFB5
FFFC
0000
0002
0003
0005
0002
0001
0003
0001
FFD8
0001
0002
0003
FFE5
0002
0000
FFFF
003F
0001
0002
0004
0006
0003
0001
FFFF
0001
0000
FFC2
0002
FFFE
0002
0001
0001
FFFC
0001
0001
003D
0001
000A
0002
FFFD
FFFD
FFFC
FFFA
FFF1
0005
FFFD
FFFC
FFFD
0005
FFFE
0000
FFFB
FFFD
FFFB
FFFE
FFE7
FFFF
FFF9
004D
0002
FFE8
FFF4
FFF2
000A
FFFE
0001
FFFB
FFF7
FFFD
FFFD
FFFA
0000
0017
0001
FFFB
FFFF
003E
0000
0003
FFFF
FFE6
FFF2
FFFF
FFF2
FFF0
0004
0004
FFFE
0000
0000
0018
FFFF
FFF9
0000
FFFE
FFFE
FFFF
FFF7
0000
FFE5
FFFB
FFF5
FFEA
0003
0009
FFFF
000D
FFF8
FFF9
FFF2
FFFD
0009
FFFA
000A
0008
FFF2
0001
000A
0001
0018
FFFA
0001
FFCF
FFF2
0021
000A
0001
FFDF
0005
FFFB
FFF6
0004
FFF2
000C
0000
FFF5
FFF4
0009
FFFD
0002
FFD2
FFEE
FFFE
FFFB
FFE9
0011
FFF8
000E
0029
FFFC
FFF6
FFFD
FFFB
0003
0009
0005
FFF5
FFFE
0006
FFFF
FFFA
0009
0007
FFE7
0003
000C
000A
000D
FFD7
FFFE
FFFF
FFFD
0006
0006
0012
000C
0017
FFF1
000D
FFFC
FFFB
0001
0020
0006
FFE7
003F
FFFB
FFE8
0001
FFFC
FFFC
FFF4
FFF0
0031
FFF9
0001
FFFD
0017
0016
FFE9
0002
001A
FFFD
0000
000B
000C
FFF2
FFF2
FFF8
FFFA
FFDC
FFFA
FFFA
000D
0019
FFE1
0003
000F
0004
FFFC
000D
FFDD
FFFA
FFF7
0003
FFE1
FFDF
FFF5
0010
0013
FFFF
FFEF
FFC9
0019
0003
FFFF
0009
0008
FFF4
0014
FFED
000B
000F
FFFE
0001
0009
0008
FFF5
FFE7
FFF5
FFFC
FFF8
0001
0024
FFFE
000A
FFF5
0001
FFF9
000F
FFF8
FFF1
0005
FFFE
FFFD
FFF6
0007
FFF9
001A
002C
0001
FFF5
FFEC
FFDB
FFFA
FFFD
000A
0006
000F
000A
0004
FFF0
0010
000E
0003
0004
FFFA
0006
FFFF
0024
FFEF
FFF0
FFF0
FFE7
0001
FFF7
001C
0031
0000
0000
FFFC
0002
000D
FFF5
FFFB
0002
000F
001D
FFF3
0003
FFE1
FFFF
FFFE
0002
0004
FFE3
FFFB
FFF7
FFFC
FFEC
0020
0019
0002
0000
FFEC
FFC6
0010
FFF8
FFFF
FFF8
000A
0018
FFFD
FFF8
FFFB
FFFC
000D
FFFE
0004
000B
FFFA
0012
0002
FFFA
0016
0008
FFE9
0015
0000
FFE3
0003
0002
0007
FFF7
FFE6
0003
001A
0021
FFFE
FFFD
FFE1
FFF8
0008
0000
0020
0009
FFF4
0001
FFE7
FFEA
0014
0007
FFFB
0010
0014
000A
0004
FFE2
0002
FFE2
0017
FFE3
0003
0003
000E
001D
0019
FFF7
FFEC
FFF5
0004
0003
0007
0008
001D
FFD3
FFD4
FFEE
FFF1
000F
002A
0007
0008
0006
FFF6
0002
FFE6
FFE5
FFFA
FFFE
FFE1
000F
FFF4
0006
FFF8
FFC9
0009
0002
0006
002A
001A
0014
FFFB
0015
FFD5
FFF3
FFFD
FFFE
FFF0
FFF9
0007
0008
0001
FFF8
0028
FFF9
0005
000C
FFD6
000A
FFF2
0012
0001
002A
0006
FFD1
0006
FFF8
FFF6
000D
FFFA
000B
FFFC
000D
0021
FFE9
FFFD
FFED
FFF1
000D
FFFA
FFEF
001E
FFFA
0005
0005
0001
000F
FFFF
001C
FFD6
0013
FFFD
FFEE
FFF7
0009
FFEF
FFFA
FFFC
FFFD
FFFF
0016
FFF8
000C
FFEF
0011
FFF6
FFF5
FFFF
FFFA
0017
FFFF
FFED
0006
FFEF
FFFC
FFEB
000D
FFEE
000E
0019
0008
FFFE
0008
001E
FFDC
0002
0004
FFF5
0009
FFFF
FFF6
FFFB
FFEA
000C
FFFB
FFFC
FFED
FFDB
FFF7
0004
FFEA
FFEB
FFFF
000A
FFF5
0010
000A
FFF0
000E
0023
000E
FFFD
FFF1
0002
0023
0002
0003
0018
FFF9
FFFC
0007
0005
FFFC
FFFB
001F
0007
FFF1
0002
0006
FFD7
001B
000C
0006
0003
FFD0
000D
0002
0008
000B
FFF0
0007
0007
0000
FFFF
0008
0002
0032
0000
FFFE
FFFB
FFFE
FFFD
0004
0001
003C
001B
0006
FFF3
FFE8
FFF1
000F
FFFA
0017
FFFF
0000
FFFA
FFE9
000C
0002
0007
0000
0004
FFFE
FFFE
001E
FFDA
FFF7
0008
0006
001B
FFFC
0006
0004
FFE4
0014
FFFF
FFEF
0010
FFFC
FFFC
0003
0000
FFFC
0018
0007
FFF8
0003
FFDF
003B
0004
0001
0003
0007
000D
0002
FFFC
FFEC
FFFC
FFFB
0001
FFD0
000E
0003
0004
FFF9
FFF6
FFF8
0005
FFC4
000E
FFFD
FFE3
FFEB
0002
0005
FFF7
FFFF
0002
FFF9
0011
FFF3
FFE9
FFFF
FFF6
0009
FFFC
FFF2
0005
FFF7
0036
FFF7
0000
FFF5
000D
0001
FFFF
0006
002E
0003
FFF8
0004
FFE8
0005
0003
FFFD
FFF2
FFE7
000D
FFEA
000E
0007
0014
0009
FFD6
0002
0004
000F
0007
FFDD
FFFF
0020
0014
FFED
FFFA
0008
0008
FFE4
FFFF
000E
0001
FFE8
0006
001F
FFDC
0023
FFE8
001F
000A
FFF1
FFE3
FFDB
0003
0001
0014
FFE9
000D
0004
FFFC
000A
0000
000D
FFF2
001F
FFFE
FFFD
001E
FFFB
FFFD
FFEC
0010
0012
001B
001F
0014
FFFD
0007
FFE9
0002
0004
FFD9
FFF8
0019
FFE1
FFED
FFF5
0023
0011
0007
FFFA
FFFC
FFEA
FFF5
FFEE
FFF2
FFEB
0003
0019
0002
FFED
FFF5
FFF4
0002
0007
FFF4
0025
0004
FFD9
FFE3
FFF5
000A
0010
0001
FFE8
FFF7
FFEA
FFFF
0001
000B
0016
0008
000A
0018
FFFB
0004
0008
FFF0
FFF2
0014
0015
FFFF
FFED
FFFA
0005
FFFA
FFF7
0012
FFFC
000D
002E
FFF6
001B
FFE4
0007
FFFD
FFF1
FFFC
FFE7
000F
FFDD
FFFF
FFF9
0008
FFFE
001B
0003
FFF8
0005
FFFF
0013
FFFA
FFF4
0001
0003
000D
000B
FFFB
FFFD
FFF4
FFFC
FFFB
0003
0008
FFF9
0018
0007
0019
0001
0011
FFF8
0005
FFFF
0021
FFF9
FFFA
0007
000E
FFF9
0000
FFF9
0001
FFF3
0009
FFED
0003
0005
0008
000A
FFFD
FFE7
FFFD
0016
FFEA
FFFF
0004
0010
FFDC
0001
000B
FFFF
0014
0000
FFFD
0001
FFFB
0033
0006
0008
000A
FFFB
0000
0003
0001
0000
0000
0005
0008
0001
0001
0004
FFEF
0001
FFF1
0006
0017
000E
0006
FFFE
0009
0000
0003
0002
000A
0005
FFD5
FFFC
0002
0003
0014
0000
FFFC
0006
000A
0005
0007
0007
FFD4
FFFA
FFFE
0004
0003
FFFC
FFF9
FFFD
FFFF
FFFF
FFFE
0004
0003
0008
0002
0008
0009
000F
0003
FFF0
FFC8
002B
FFF3
0000
000E
0002
FFF7
0030
FFF8
0015
0011
0000
0000
FFF6
001E
0002
FFE4
0010
0000
0004
FFF6
0018
FFFC
0002
FFF6
000E
FFFA
FFF2
0001
0001
0025
FFE3
0000
FFF0
FFDD
0004
FFEB
0032
000F
FFF0
FFF7
0009
FFEB
FFFF
FFFB
FFFF
0026
FFE4
FFF0
0004
0004
FFF0
0008
FFFE
FFFF
FFF9
FFF8
001C
FFE5
FFF4
FFE5
FFEA
FFF3
0011
FFEA
000C
0008
0002
0010
0011
0003
0010
0003
0003
0018
FFE9
FFFA
FFEE
FFE9
000A
FFF6
0004
FFFF
FFFC
0024
0013
FFFD
0009
FFF2
FFF8
FFF7
0000
0009
FFED
FFEF
FFE9
0001
FFF2
000C
0013
000D
FFF8
0003
0014
FFF9
FFE1
000C
0012
FFFF
0010
FFF6
FFFA
000F
FFFB
000E
FFEE
0001
0002
FFFC
FFF8
FFFE
0002
FFF2
FFFC
FFFA
001E
0007
0003
FFFA
FFF7
FFFE
FFE8
0000
0010
FFF4
FFFD
0019
FFFC
FFFE
FFF0
FFFC
FFF2
FFFB
FFE7
000A
FFF7
002C
000A
FFEB
FFF5
FFD6
0004
0007
FFF8
FFFC
FFFB
FFEB
FFEB
FFF2
000A
0018
FFFE
0004
000C
0004
0002
FFF1
FFF3
0015
FFF1
0000
FFEF
FFFA
0013
000E
FFED
FFFD
0001
FFEA
FFF8
FFFB
0008
FFEE
FFF9
0000
FFF7
FFF8
001A
FFF6
0006
0002
0008
0011
000F
FFDD
0001
FFF9
0000
FFFF
0003
0009
000B
000E
FFEB
FFFE
0006
0012
0004
FFFB
FFF7
0004
FFE5
002C
000A
FFFF
FFE7
FFFC
000F
FFE0
FFF2
FFF2
000D
FFF9
0000
FFFC
0017
FFD3
001F
FFF4
0001
000D
0007
FFF7
FFF0
FFF6
0004
FFFB
FFF4
FFE0
0005
FFE8
0004
FFFD
000D
FFF2
FFFF
0003
0006
0003
0014
0011
FFF9
FFFB
FFF6
0025
FFF4
000C
FFEF
FFF3
0008
FFE2
0002
FFE8
FFF2
FFEE
000A
FFEC
FFF7
FFF4
000D
0002
0014
0009
FFF1
0005
0016
FFED
FFE4
0001
FFDD
0008
0006
FFFF
FFEC
FFE9
000C
0021
0004
0001
0009
FFE0
FFED
FFF3
000C
FFE5
FFFE
FFFA
001A
FFE0
FFD3
0008
FFE9
001D
0024
FFFA
0003
0001
0021
FFE6
FFF8
FFFF
0011
0025
000A
FFFD
FFF8
FFFF
FFE9
000D
001C
0009
0003
FFDC
001A
0006
FFFD
FFFF
0008
000D
0003
0002
000C
FFF5
FFF9
000A
FFE7
0000
0012
0003
000D
FFDA
0000
0000
FFD1
000E
FFEE
FFDC
FFF2
0000
FFF8
FFFD
0006
FFFF
FFFA
0012
0003
FFF4
0003
FFFD
FFF5
0013
0000
FFF3
0020
0014
0007
FFF4
0008
001B
0008
FFF0
0004
0023
FFFE
0004
0009
FFF1
FFFD
FFFC
0016
FFEF
0005
FFF6
0001
0008
0006
000B
FFE2
FFF6
FFFC
FFFA
0003
0006
0002
0008
0004
0001
0002
0000
000F
0003
0005
FFDF
0002
000F
000D
FFF7
FFEC
0000
0006
FFF8
000E
0002
0001
0009
0007
0010
0004
0003
FFFE
FFCF
0001
FFFC
FFFE
0006
000A
FFFC
0008
0021
FFFF
FFF4
FFFA
FFF9
0006
FFF3
0001
0018
0005
0002
FFFC
000D
0008
0002
0005
0006
0001
FFFA
FFF2
FFF2
0015
FFF2
0002
FFFE
FFFA
0003
0006
FFFD
FFFC
FFF3
0024
FFD5
FFFC
0003
FFFF
FFFA
FFF5
0002
FFFC
0004
0007
0001
000B
FFE9
FFF8
001C
0006
FFFF
0015
FFF5
0008
FFFF
0009
FFEC
0017
FFEA
0006
FFFC
FFF0
000F
0008
0011
0014
0000
000F
0004
0010
FFE2
0018
FFFB
FFEA
FFF3
0007
0007
0011
FFF7
FFF5
FFF6
000B
0001
0004
0001
FFFF
0009
FFFF
000B
0001
FFFF
0002
0003
0002
0004
0001
0001
0005
0001
FFFE
0002
0001
0002
FFFF
FFFD
0004
FFF1
0004
0001
0019
0007
0000
FFF6
0009
0002
0002
FFFB
0004
0003
0003
FFF5
0000
0021
FFFE
0000
FFFE
FFCF
FFE9
0001
FFF6
0008
FFFD
0003
0003
FFF7
FFFD
0035
FFFE
0003
0001
0003
0002
0001
0000
FFFC
FFD0
0001
FFF6
0000
0007
FFF1
0014
FFE4
FFFB
0029
FFFE
0007
FFF8
FFDF
FFF7
0002
0011
000F
0019
0013
FFFD
FFE7
0003
0002
FFF6
FFF5
FFF7
FFFB
FFFA
0000
FFE8
FFF1
FFF2
0013
0010
FFF9
FFF3
FFFA
FFF9
FFDB
0013
FFF3
FFF5
001A
001D
FFE9
FFF5
000D
0003
FFFB
0013
0016
001D
FFEA
FFF1
0000
0029
FFFC
FFD7
0009
001A
FFFF
FFDF
0027
FFE6
FFFB
0011
0003
0016
FFF3
FFFD
0004
FFFF
0004
FFF9
000B
FFEF
0006
FFFA
FFF0
FFFA
FFF3
FFF9
000F
FFF9
0022
FFF2
0001
FFF3
FFF1
000A
FFFD
0004
0018
0003
FFFB
FFEB
000B
000A
FFFE
FFED
FFF9
0016
0002
FFEA
FFFA
0000
FFF7
000C
0003
0015
001D
FFF4
0004
000F
0015
FFFC
FFF1
000E
FFF5
FFF2
FFEF
0001
0003
FFF1
0007
0004
0006
FFFE
FFED
0009
0010
FFFB
0006
FFFD
FFF6
FFDF
0002
000F
FFF6
000F
0007
0006
FFFE
0014
FFF9
FFFD
FFF6
0000
0003
FFFD
001A
FFFF
0011
FFF9
FFD7
FFF9
FFFB
0005
0003
0009
000A
0002
FFFC
FFFE
0009
0008
0005
0004
FFF7
0004
000C
0004
0031
FFFD
FFFD
FFFB
0014
0009
0009
FFFC
0007
0005
FFE3
0009
000E
0004
0000
FFFB
000A
0006
0003
002C
FFFE
FFF7
0000
FFFB
FFEB
0024
FFFF
FFF6
FFF2
FFFD
0012
0000
0003
FFF2
000D
0005
0004
0012
0002
0003
000E
0018
FFFB
0003
FFE4
FFEA
0002
0001
000F
0000
002D
FFED
0009
FFFB
FFD8
0002
FFFC
0001
001F
0016
FFF8
0017
FFF8
0009
FFFE
0004
FFE8
FFE0
0003
0000
FFF8
0000
0003
FFFB
FFFF
FFFC
FFFC
0016
0004
FFF1
FFF5
FFFE
002E
FFF9
FFFA
0017
FFFC
0003
0022
FFF6
FFE9
FFFF
FFF3
FFFF
0005
001A
FFF3
FFED
0019
FFFC
000A
FFE9
0006
FFF9
000C
FFE3
FFFD
FFFD
0009
FFFC
0000
FFF8
FFEE
000E
0020
FFEA
0003
FFF8
FFEB
FFEA
FFFC
000A
0009
001A
FFF7
000B
001D
FFFF
0004
FFD9
FFF0
FFD7
0006
0005
000A
0000
0018
0008
FFEC
0025
FFF7
002B
000D
FFFD
FFFD
FFEB
FFDF
0006
FFE0
000B
0002
000A
FFF9
FFED
000A
0004
000A
FFFC
0001
000A
FFF8
FFFD
0010
0007
FFD3
0012
000A
0004
FFF0
FFF4
0003
0002
0011
0017
0001
0001
FFED
0013
0008
FFF3
FFF9
FFFE
FFF2
0015
0000
FFE9
0008
FFE1
FFF7
0000
FFFD
FFEA
0017
FFFD
FFF9
0005
FFFF
000F
FFFF
001B
FFE4
FFF8
FFEC
0018
FFEE
000A
FFF6
FFD0
0005
000C
000F
0015
0003
0014
FFFF
0004
0019
000D
FFFE
0006
FFF7
0000
FFF2
FFE3
FFFA
0018
0018
FFF8
FFC9
FFFF
0010
0006
0032
FFDB
0002
001D
FFFC
000B
0004
FFF0
000E
FFEC
FFF9
0002
0002
0024
FFF6
FFC7
FFFE
0020
000D
FFEB
0003
0013
FFF2
0000
FFFB
0008
FFFC
000F
0006
FFF2
001E
FFF3
FFFF
FFE3
0000
FFFF
FFE6
FFCD
0009
0014
FFF9
FFFD
FFE0
FFF6
0009
0008
0000
0007
000A
0001
0004
FFE8
FFFE
FFF9
FFFE
0002
FFFB
0002
0003
FFF5
FFF8
FFFD
0003
FFEC
0000
0002
FFF4
FFFE
FFE2
FFFE
0015
FFF0
0003
FFFA
FFFA
0013
FFF5
FFFC
FFFE
0006
001A
0002
FFF4
0001
FFFE
FFFB
0002
FFFC
0002
FFF8
0002
FFF6
FFE9
FFFC
FFFF
FFFE
FFF6
FFFB
FFFD
FFFF
0011
FFFE
FFFE
FFFB
0010
0007
FFFC
0005
0004
FFF9
0009
0022
0035
FFE7
FFFE
FFFF
0004
0002
0019
0002
0012
FFC7
FFE0
000E
0004
0022
FFD0
0003
FFF8
FFEB
0000
0001
0005
FFF7
0000
000E
000A
FFD4
FFEC
FFFB
0014
0022
FFD5
001B
0001
0001
FFFA
000C
0006
0017
FFE8
001C
0000
FFF7
0006
0008
FFFC
FFF2
FFE0
FFED
FFEC
000D
0001
0017
000D
FFF1
0000
0013
0001
0022
FFE5
FFFC
FFFE
FFF5
FFF8
FFD9
0013
FFE9
0000
FFF4
FFF3
FFFD
FFDF
FFF4
FFF4
FFE3
001D
0026
FFFE
001E
0017
0015
FFF8
0002
0000
FFFD
FFF5
FFF0
FFFB
000D
FFE0
FFFB
0023
0024
FFEF
FFEC
0005
FFF3
FFFA
0019
FFE4
000C
0010
0013
FFF4
002B
0003
000B
001B
0012
FFF0
0025
FFFD
FFF0
FFEA
001F
FFFF
FFE5
FFEF
FFFF
0008
000D
000D
0007
FFF2
0003
0010
0005
FFD1
000D
000F
000B
0002
FFD8
0009
FFFE
0002
000A
FFFA
0009
0009
0001
0000
0008
0006
002D
000C
0009
FFFE
0004
001D
0003
0001
0031
0009
0004
0007
FFEF
0004
000E
0004
0008
0004
0005
FFFA
FFED
0012
0000
0003
0006
0001
0007
0007
0021
FFD2
0001
0007
0011
000D
0004
0001
0002
FFE0
000F
FFFF
FFF8
0026
FFFD
0000
FFFF
0000
FFF7
FFF1
0001
FFFB
0000
FFF1
0016
0000
0061
FFFE
FFFD
0003
0002
FFFC
FFF0
FFFE
FFFF
0001
FFFC
FFFD
FFFE
FFF5
0000
001A
0000
FFEB
FFE6
FFFF
0001
000C
FFEA
FFF5
0003
FFFE
FFFA
000D
0001
0005
0003
FFC7
FFFE
FFFD
0000
0083
0012
0000
0009
0003
FFFF
FFFF
FFFB
0001
FFFF
FF87
FFF9
FFE0
FFFE
FFFF
FFFE
FFF3
FFFC
FFFB
006F
0001
0010
000B
0000
FFDD
FFE9
0009
0005
FFF7
FFFB
000D
FFFC
FFEB
0011
FFF4
FFFF
002A
FFEE
0000
FFFB
FFEF
000F
0003
000D
000B
FFFF
0004
000F
FFEB
FFD8
0000
FFFD
FFEB
001F
0001
0012
0000
001B
FFEF
FFFC
FFF0
0003
FFFE
0003
000B
000B
0007
FFFA
0000
FFEB
FFF0
FFFD
0002
0001
FFF9
FFF1
001E
000E
0000
0006
0007
FFF4
0006
000C
FFD5
FFEC
FFFB
0006
FFF5
FFFC
FFE8
0011
FFFF
0014
FFFC
FFFC
FFFD
0001
FFED
FFF6
FFFC
0002
FFFA
FFF6
0002
FFF6
FFFF
FFFB
002F
FFFB
0004
FFD1
FFFE
FFFC
0039
FFE7
FFFA
0000
FFF6
FFFE
000E
0000
000C
0005
FFB7
FFFB
0002
FFFF
0091
0021
FFFC
0018
0005
FFFA
0004
FFF1
0014
FFFB
FF97
0001
FFEA
0001
FFFD
FFFB
FFF0
FFFD
FFFD
006F
FFF7
0010
0005
0001
FFFC
0022
0019
0010
FFF9
FFFA
0019
FFE9
FFD3
0007
FFF1
FFD2
FFE3
0002
FFED
FFFD
FFD0
FFD7
0005
FFE9
0012
FFF1
0006
000C
FFE8
0024
0016
0014
002C
FFDC
FFEE
FFEC
FFFA
FFF1
FFF8
0029
FFD7
FFF6
FFEC
0000
0012
FFF5
FFFA
0013
0000
0020
0015
FFFD
0004
0019
FFEF
FFEB
0009
FFF1
0009
FFE5
0002
0009
FFEF
0013
0018
FFF8
0028
FFE9
FFE6
FFF6
FFDF
0000
FFF7
FFF6
0001
FFF9
FFF9
FFFE
0000
FFF9
FFF1
FFF7
FFF7
002D
FFFB
FFEB
0004
0001
FFFC
FFFA
FFFE
FFFD
FFFD
FFF1
FFE9
0002
0007
FFF9
FFF6
FFFF
FFF6
FFFF
FFFD
000B
FFE5
FFF8
FFF9
FFFE
FFF9
FFED
FFF3
FFE2
000E
FFF9
FFF1
FFEC
0011
0004
0005
FFF6
FFDE
FFF3
FFF8
FFEB
0039
FFF8
0000
FFF4
FFFF
0008
0005
FFE7
FFED
FFC4
FFFB
FFFC
FFFF
FFF4
0024
002B
FFF9
0038
FFD2
FFF6
FFE8
0017
FFE7
FFFF
0031
FFEB
0001
FFCF
0008
0005
FFF9
FFF7
0000
0006
000A
FFFF
FFFD
FFFA
001B
000B
FFF8
FFD3
000A
FFF5
FFE6
003B
FFFE
0025
001C
FFF6
FFE3
0002
FFFE
0026
FFCF
0007
FFF8
FFD9
FFE1
FFD9
FFFD
FFF5
0061
FFFD
0007
FFD3
FFFA
0018
000D
FFFE
0006
FFFA
0002
FFF7
0018
0001
FFEE
0003
FFF6
0020
FFF5
0014
FFF5
000F
FFF7
001B
FFE5
FFF7
FFEE
0010
FFFF
FFF5
FFEF
0005
0000
001D
0010
FFD1
0008
0007
0013
0012
000D
FFE3
0004
000A
000C
FFF2
0020
FFC8
FFF7
FFFA
FFF6
0012
FFF9
FFFC
FFFB
000F
0014
FFE6
0014
0003
000F
000D
000C
FFF1
0014
FFF1
0002
0015
000C
FFF9
0014
FFF4
002B
0008
FFFB
FFFC
FFE2
0029
FFF6
FFFD
FFF2
000F
FFE7
FFF6
FFF9
FFF5
FFFC
FFEC
FFFA
FFEF
FFFB
0007
0008
FFF9
FFDF
FFF2
FFFD
FFDC
000D
FFF7
FFD6
FFE3
FFEC
FFED
FFFD
FFFE
FFFA
FFF5
FFFF
FFFD
FFE9
FFFA
FFF7
FFF7
FFF0
000E
0003
FFE1
0031
FFFD
FFF8
0010
000C
FFFB
0006
FFF5
0013
FFFA
FFFB
FFFF
0020
0004
FFEC
FFF2
FFFA
FFF7
0013
0007
0001
000A
0004
0018
FFFA
001F
FFF8
000A
FFE5
FFFB
0003
FFE2
FFEE
FFF9
FFFA
FFF8
FFEF
FFF1
0005
FFFC
0005
FFF8
FFEF
FFF3
FFFC
0000
001E
FFFE
0002
FFEB
FFF5
0007
FFF8
FFFD
FFFF
000F
FFCB
FFFA
FFF1
FFEA
0044
0020
FFF5
0000
000C
0008
FFF8
0014
FFE5
FFF8
FFC6
FFFA
0008
FFF3
FFFC
FFFD
0000
FFFE
FFFB
004D
0001
0015
FFFD
FFED
0016
FFE6
FFF9
0006
0014
FFFC
0030
FFFF
FFF3
0010
FFFD
000C
FFE1
FFFF
0019
FFFC
0004
0010
FFFF
FFE5
0009
FFE7
0003
0003
0002
FFD8
0021
FFEC
FFF0
FFEE
0005
FFE7
FFFF
0003
0009
0013
FFFF
0001
0018
0006
0014
FFF2
FFF1
FFF0
FFF9
FFFE
0001
0019
0012
FFEC
FFDF
0000
0004
001C
FFF3
FFFE
0003
0015
FFEB
0019
0004
000C
FFFF
0008
FFF6
0004
000B
0002
0013
0002
FFFB
FFFC
FFFD
0013
FFF9
FFD6
FFFD
0002
0002
0005
000D
FFF3
0001
FFFE
000C
FFFC
0006
0003
FFED
FFFC
FFFC
FFDD
001A
000D
FFFC
0003
0003
FFFD
0016
FFF8
FFFA
FFF0
0007
0009
0001
FFF3
0004
FFFA
FFFE
FFFD
FFFC
FFE4
0005
0001
FFF5
FFF8
FFEF
0002
FFFC
000E
000F
0004
FFE6
0000
0001
FFF1
0002
FFFE
0003
0009
0007
FFF7
000B
FFFD
0002
0003
0003
0000
0000
FFFD
0000
FFF2
FFFC
0000
FFFA
000B
000B
FFF0
FFE8
0009
FFFF
FFEB
0005
000B
FFFD
FFF5
FFF6
FFF3
FFEB
FFFF
FFFF
000B
000C
FFF8
FFF1
0012
0009
0007
0001
0003
0003
0005
0000
FFE6
0016
0003
FFEE
0009
FFF6
000D
FFFC
FFF8
0009
0002
000B
FFE7
0018
0001
0012
0001
FFFE
FFF9
FFFC
000A
FFFC
FFF4
FFF1
FFFA
001F
FFF5
FFF0
0008
FFF5
FFEC
FFF2
0028
FFC7
FFF9
000A
0001
FFFF
FFF7
0009
0000
FFFB
FFFD
0006
001F
001F
0011
FFFC
FFF1
FFE7
0002
FFFA
0004
FFF1
0006
FFE8
FFEC
FFFD
001D
0010
FFF8
0022
000E
FFF7
0015
0009
0018
FFF0
0014
FFEA
000A
0007
FFF3
FFEC
FFFB
FFFC
000C
FFDA
0010
FFEE
0003
FFFA
0004
0002
FFF5
FFFD
FFFD
0035
000B
FFEF
FFDF
0003
0021
FFEC
FFF3
FFF5
000D
0000
FFFA
FFFE
0007
0002
FFFF
0012
000B
FFFB
FFF4
0019
FFE7
000C
0001
FFE8
0000
001B
0008
0004
FFFB
FFE4
0015
0003
FFF4
0013
FFF9
FFF9
FFFB
0017
FFEC
FFFF
FFF5
FFF3
FFF4
0005
0010
0008
FFE7
FFF8
FFE7
FFFC
0014
FFF9
000E
FFEC
FFF9
001F
FFF1
FFFA
001C
FFFB
0005
FFD2
0016
FFF4
FFEE
000B
0000
002F
001C
0015
FFEB
FFFA
FFEC
FFE5
FFD4
FFF8
0025
0000
FFF0
0003
0019
0004
FFC5
FFCC
FFEE
FFF3
FFF3
0022
0027
FFF7
0009
0002
FFF1
001C
001E
0000
0000
FFFE
FFF7
0008
FFE6
FFF8
0017
0013
0020
0005
000C
002B
FFF1
FFF7
0000
0023
FFFC
FFEB
0011
FFD9
FFF7
0003
0002
FFF8
FFE8
FFFE
FFF1
000A
0006
0025
0006
FFE4
0001
FFF7
001D
0007
000E
FFEF
0004
FFEB
000E
FFFB
0002
FFDE
0019
0005
FFE7
FFF7
0009
0003
000A
0019
FFC8
0020
000B
000D
001B
000B
FFE4
FFFD
0013
001B
FFED
0014
FFC5
0005
0008
FFF3
000B
FFEC
FFFB
0002
FFFC
FFFA
0001
FFEC
FFFA
000A
000E
0004
0002
0010
FFDF
FFFF
001E
FFF4
FFFC
0011
FFC3
0001
FFEE
FFF3
FFE8
FFFB
FFFC
0002
0008
001C
0001
FFD6
0000
0027
0023
0018
FFFC
FFE9
0009
0006
FFF5
FFF8
000E
FFCD
0004
0000
000F
0008
0017
0033
FFF7
0039
000D
0006
0000
0001
0002
0047
FFDC
FFF6
000A
FFE5
FFE2
FFFD
0003
000B
0000
000A
FFDD
0004
000D
FFFE
0014
FFFE
FFD9
FFFD
0008
FFF8
0007
0003
0011
FFF2
FFFE
0013
0003
0003
FFF6
FFF8
0000
0026
FFD6
0004
FFF2
0001
0002
0018
FFFA
0007
FFFE
0005
FFFE
FFFB
FFF7
0005
FFFA
0034
FFFF
FFD1
FFF1
FFF7
002A
0007
0001
FFF9
0001
FFFF
0001
FFF2
FFFA
001F
0007
FFFE
FFFB
0040
000A
0003
FFFD
FFB7
FFF0
FFFE
FFE0
0011
0002
000B
0000
FFFB
FFFF
0044
FFFE
0004
0002
000A
FFFE
FFFF
FFED
0003
FFC6
FFFA
001C
FFFE
FFF9
FFFB
FFFA
0008
FFFE
FFF6
FFFB
FFE5
FFF3
FFEF
FFFC
FFF9
FFD7
0003
001F
FFFF
FFFA
0020
FFF6
0007
FFEF
0010
FFF1
0000
FFF1
FFEA
0014
000F
FFF6
FFFF
0031
FFEC
000C
FFFD
FFBB
FFF2
0000
FFE4
FFF4
001C
001A
0020
FFEE
FFEF
FFFF
FFF3
FFEF
002C
0010
FFFA
0011
FFD9
FFE0
0000
000C
FFF8
FFEE
FFFC
002D
0001
0017
FFFD
FFFD
0005
FFEE
0001
000B
001C
0000
000E
0000
FFE8
0005
FFFC
FFF1
001A
0006
0006
FFEB
0008
FFF1
0016
FFFA
0004
FFE5
0013
0013
0001
0003
FFEF
FFE1
0004
0006
0005
FFFF
FFFA
0011
0004
FFF8
0016
001C
FFF7
FFFE
0002
FFEF
0014
0003
FFFC
0019
0004
FFEE
FFF1
FFF1
0005
FFEF
FFF6
FFF5
0000
FFEE
FFFF
FFEF
000A
FFEF
0001
001A
0003
FFF3
000F
FFF0
0005
FFF7
0012
FFFF
FFFA
0000
0015
0017
FFEF
FFFB
FFF7
FFF5
000B
FFFE
FFF4
0004
0008
0018
0002
000B
FFED
0006
0001
0005
FFF0
FFF1
0005
0010
0022
FFF3
002B
FFFE
0002
FFEB
FFF7
FFEE
0002
FFF2
0001
FFFD
FFF1
FFF3
000B
FFF1
0003
0014
0017
FFF8
0019
0002
0001
0009
0011
FFF3
FFE9
0007
0004
0001
FFF6
FFF1
FFF7
0026
0006
000A
FFE2
FFFC
FFFF
FFF5
0015
0004
0001
FFF9
FFDE
FFF3
0011
002A
FFF9
FFF9
0004
000B
0010
FFEF
FFF9
FFF5
0007
FFEA
FFFF
000F
FFFC
000C
000D
000C
FFE9
000E
0000
FFFA
0003
0007
0000
FFE8
0001
FFF4
FFEC
0016
FFED
0019
000F
FFFE
FFF9
FFF7
FFF2
FFF4
0015
0004
0011
000A
0006
000F
0005
FFDB
0007
FFFF
0009
FFEF
0014
0024
0000
FFFF
FFFA
0016
FFEF
FFFB
FFFD
0001
0002
FFFF
FFF1
0000
000E
FFFD
0009
FFFC
0000
0003
FFFA
0008
0000
FFF3
FFF4
0019
FFFF
000C
FFF3
FFFF
0003
0011
FFF4
0013
0003
000B
0003
0006
000C
FFF3
0005
0004
FFFD
0000
FFFF
FFE2
0003
FFD1
FFFC
0001
FFF7
000B
003C
FFFF
FFFE
FFF9
0000
0000
0006
0002
FFF8
FFF4
0009
FFFA
000C
0021
FFFE
002D
FFF8
FFF8
FFDD
FFF3
000C
FFF8
FFE2
0007
000A
FFF9
0021
0000
0028
000B
FFF6
FFFC
0021
FFE0
FFF6
0014
FFF5
000B
FFFF
FFF7
FFF8
002A
FFED
0002
FFFE
FFEF
FFF2
0014
0004
FFF3
FFF5
0024
FFEF
001F
FFE3
FFE6
0004
FFED
0009
FFE9
0006
001E
000E
FFE9
0005
0009
FFF7
FFFF
0012
FFFE
000A
001D
0008
FFDE
0009
0003
FFE9
FFF9
FFFA
0003
0028
0002
0002
000B
FFCF
FFFD
FFEA
002E
0014
0027
0010
FFF0
FFFC
0010
FFFC
0000
FFF6
0000
0007
FFCE
0009
000C
0006
FFF9
0003
FFEF
000C
FFF8
FFF2
001A
000D
FFEA
0002
002B
FFF8
000A
0008
FFBD
FFE8
FFEE
0001
FFEC
FFE9
0002
FFF7
FFF0
FFE5
FFDF
FFFD
000B
0003
000D
FFFE
0013
0013
FFEB
0001
0039
0006
0006
0006
0005
002E
FFF6
FFEE
FFF3
FFEA
0028
FFF3
FFFC
FFFC
FFFA
FFE6
FFF8
FFF8
FFEA
FFEF
FFF0
FFF0
FFF8
FFF2
FFEA
0012
FFFF
FFE2
FFF4
0001
FFD0
FFF2
FFF0
FFF3
000F
0000
FFF3
FFF8
0002
FFF6
FFFA
FFEC
001A
FFCC
FFF7
FFF7
FFF2
000F
FFFC
FFF4
FFDB
0025
FFFD
FFFA
FFF2
0006
FFFD
FFF6
FFF5
0013
FFF3
FFFB
FFFC
001A
FFFA
FFF8
000B
0003
0009
0000
FFFC
FFFB
FFFE
0005
0000
0001
FFCE
FFFF
FFFA
FFF3
FFFA
FFFF
FFEC
FFFB
FFFF
0000
FFFB
FFFF
FFFE
FFF9
0002
FFFE
FFFD
0032
0001
FFF8
FFFF
0005
FFF0
0007
0001
0000
0000
0017
FFFF
FFF5
FFFC
0004
FFFE
0003
FFFE
FFD6
FFFC
FFFD
FFFC
0005
0001
FFFC
FFF9
FFE6
FFFE
0027
FFFA
FFFA
FFFD
FFFA
FFFA
FFFF
FFFA
FFFB
FFD4
FFFD
FFC1
FFFA
FFF5
001F
FFE8
FFEB
FFF8
0009
0001
FFF7
0018
0013
FFFC
FFF3
FFF9
FFCF
0018
0019
FFFD
FFF6
0004
FFFB
0018
FFFF
0013
0000
FFF2
0005
0017
FFF2
000C
0004
FFFC
FFF3
FFFD
0003
FFD8
0014
000F
0025
FFFE
0015
FFE0
000F
FFFB
FFFB
0014
0000
000C
000A
0008
FFF3
0004
FFF3
000E
FFFD
FFF4
FFFD
FFEB
FFFA
000B
0010
000E
FFFD
0000
0000
0009
0005
FFEC
0018
0004
000B
FFFD
FFE2
0003
001C
0005
000F
FFE9
FFFD
FFDD
FFFF
0000
FFE8
FFCA
FFFF
FFF9
0009
001A
0001
FFE8
FFFA
0009
0009
FFE0
FFE6
001B
0008
0011
FFFB
0005
FFFF
0007
0002
FFFD
003B
0003
0007
0002
001A
FFF4
FFFE
FFF9
FFFC
0000
FFFF
002A
FFFA
0012
FFF4
FFFC
000D
0009
FFF7
FFE1
FFB8
0003
000A
0021
000A
0009
FFEE
0013
0008
0002
FFFC
FFFF
FFF9
FFFB
FFF1
FFF6
FFFE
FFF1
001F
0000
FFFF
FFF6
FFFF
0012
0004
FFEE
000F
FFE8
FFFF
0013
FFFD
0002
000B
FFED
0007
001B
FFFF
FFFD
0002
0006
000F
FFE7
000F
0004
0000
FFFA
FFF7
FFEE
0004
FFF8
0009
FFF4
FFFF
000B
FFFD
FFF5
0004
FFF5
0007
000F
000D
FFFE
FFF3
FFFF
FFFE
FFF9
FFF8
FFDF
0009
FFE4
FFE9
0004
000C
FFF9
FFF6
0002
FFEF
0004
FFD8
FFF9
FFE9
0007
FFE1
000C
0003
FFFE
FFFE
0003
0003
FFF2
FFFB
0031
0003
0010
FFFE
FFE6
0007
001B
000D
0009
FFDF
0007
0002
0019
FFD7
0017
0011
002D
FFDC
FFFB
FFF3
FFE7
002B
0002
FFFF
0001
FFF6
FFEE
0007
FFF9
0006
0031
0017
0019
FFF8
0027
0005
FFFC
FFD7
FFF3
0012
FFF2
0005
0011
FFEF
FFF5
0004
FFF9
0004
0006
FFF8
FFF0
FFF8
0003
FFF1
FFEE
FFF4
0005
FFFE
0000
0006
0025
FFFF
FFF2
0009
FFFE
0001
000C
FFE5
0003
FFFE
0008
FFF2
FFFD
FFFE
FFEF
0000
FFEE
0029
FFF0
0001
FFE3
FFFC
FFF7
0007
FFFE
0002
001F
FFF9
FFFD
FFF7
0006
FFEC
0006
0002
000A
0016
0009
0007
0014
0002
FFFA
FFF1
000C
FFF0
001A
0004
FFFA
001A
0012
0017
FFF0
FFF3
0000
000D
FFFB
FFF1
0002
FFF2
0000
FFE5
0006
000D
0002
001B
FFF2
FFFC
0001
0005
FFFC
0005
001B
0003
FFF1
FFF1
0005
0031
0004
0002
0006
0005
0014
0002
FFF5
0015
FFFB
0010
FFF0
FFED
FFEF
FFFD
0019
FFFB
FFFF
0005
FFF2
FFF3
000E
0011
FFEF
0000
FFE9
0007
000D
FFFA
FFF6
0002
FFF1
FFF6
FFFF
0005
0009
0009
0014
0006
0000
0003
0005
FFF6
FFF0
0006
FFF1
0016
0011
000A
FFF8
0006
FFFE
FFF4
0002
FFFF
0012
FFFC
0002
0003
000E
0000
FFF3
FFF6
0009
000A
0006
FFF7
FFFD
FFFD
0013
FFFA
0004
0013
FFEE
0002
FFF9
FFF8
FFF8
FFFE
0000
FFFD
FFF7
0010
FFFA
0002
0009
000C
0014
000C
0003
FFDD
0006
0003
000B
0004
FFFB
FFF5
FFFD
FFFB
FFF5
FFF7
0000
FFF5
FFFA
FFF8
0000
FFF9
0001
FFFF
FFF6
FFF5
000B
FFFE
FFFD
FFF9
FFF6
FFF5
FFFB
FFEE
FFFC
0002
FFF6
001D
FFE8
FFEF
FFFC
0002
FFF3
0003
FFFD
FFFD
FFF9
001E
FFFD
FFF7
FFF9
FFFF
FFFE
FFF9
0000
0000
FFF6
FFFA
FFF3
FFF5
FFFE
FFFE
FFFB
0004
FFFB
0001
0001
FFDB
FFFF
FFFE
FFF8
FFF4
FFFB
0000
FFF8
FFF7
0007
0007
000A
FFEE
FFD2
0014
FFFE
FFED
0004
001F
FFE4
0007
0019
0009
000C
000D
FFF4
0019
0000
FFE5
0037
FFFE
0009
0004
0010
FFFD
0000
FFE5
FFFA
FFE7
FFFE
FFF4
FFFA
FFED
002E
FFFF
0019
FFF9
001F
0001
0009
FFED
FFFE
FFF3
0008
FFF3
000B
FFF8
FFE9
002A
000F
FFFC
0015
000A
FFFD
0009
FFDE
0025
FFF8
FFFA
FFFC
FFE1
FFF4
FFD1
0001
FFFA
0029
0009
001A
FFF1
0006
0006
FFFC
0019
0025
FFFC
FFDF
FFFA
FFE8
000C
FFF4
0006
FFF9
0028
0006
0005
001D
0007
000D
FFFE
0000
0005
FFED
0005
0006
0001
0036
FFEE
FFB6
FFFC
FFFD
FFD1
FFEC
0001
0018
0003
FFF5
0007
FFF6
FFF8
FFFE
0007
001B
FFF8
FFE9
0002
FFFA
FFF5
FFFE
FFE8
FFBF
FFF5
FFE2
FFFE
000D
FFE9
0006
0035
0001
0004
FFF1
FFEC
0001
FFF2
0002
000A
FFFF
0008
0006
002E
0006
0004
FFF8
0020
FFF7
FFE8
0000
0004
0000
FFFE
FFF5
FFE8
0003
0000
0004
001F
FFF8
000F
0005
FFFB
FFF0
000B
0007
0001
001C
FFFB
FFE8
FFF9
FFFF
FFEB
0000
0000
0018
0003
0006
0007
FFF4
FFF5
0012
001E
FFE4
FFFF
0019
0012
0005
FFF2
FFF9
FFF1
FFF1
FFEC
FFFC
FFF8
000A
0011
0010
FFF8
FFF3
0016
0001
000C
FFFA
0006
FFE1
0005
FFFE
FFE2
FFE7
0020
0018
FFF5
FFFF
000C
FFF2
0001
0007
0002
0029
FFFE
FFEC
000C
0007
FFF1
FFED
002D
FFF0
FFF7
FFFA
0000
000B
0011
FFF8
0015
FFF9
0026
FFEB
FFFE
FFE6
FFCF
FFEB
0002
FFF7
FFF0
FFFB
0004
FFEA
FFFE
000E
001D
FFFD
0000
000C
0002
0010
FFF1
FFFF
0001
FFED
0002
FFF9
0007
002F
0013
FFFC
001B
FFFA
FFD8
0021
FFEA
FFF1
FFFC
0012
0004
0012
0009
FFF2
FFFF
FFE1
0004
0012
0004
FFD7
0000
000E
000A
0002
0008
FFF6
000F
FFDF
000C
FFFF
FFFF
001F
FFFB
FFF9
FFE3
FFF7
0005
0017
0009
FFF7
FFED
FFFC
FFFC
FFF3
FFE9
FFFA
FFF7
FFFF
FFF5
FFE1
000C
0020
FFFF
0019
0006
FFF6
FFF5
0006
001E
000A
FFF7
0000
FFEB
0001
FFF2
0004
001C
FFFD
0016
0015
0005
FFF5
0004
FFDC
FFF5
FFF3
FFFA
000A
0011
FFF7
0000
0013
0013
0006
0000
FFE7
FFF8
FFFA
0008
000D
FFF5
FFF3
0000
0009
0000
000A
0000
FFE9
0003
FFFC
FFFA
0005
0007
FFFF
FFFB
0000
FFFE
FFEA
0008
0002
FFE7
FFF4
FFF6
0006
FFEB
FFF7
0015
0008
FFFA
0014
0007
0006
FFF0
FFFA
0007
FFFC
FFEE
FFEC
000E
0006
0009
FFF9
0004
FFF1
FFFF
FFFD
FFFD
001C
0005
0015
FFFD
FFFE
0009
FFF0
0010
000F
0000
0019
0001
000B
FFF1
FFF9
FFE5
000C
FFF4
000D
FFEC
FFED
0001
000A
0011
0006
0014
FFFC
0001
0017
FFF2
FFEE
FFD8
FFE8
000A
0006
FFF0
0000
0018
000C
0011
FFFC
0013
FFF0
FFEE
FFFF
0000
0000
FFFF
FFF0
FFF8
0001
FFFB
FFEE
0003
0013
FFFB
0000
0004
FFCC
0003
0004
0005
0017
0006
0011
0004
0004
0009
FFEB
FFF6
0006
FFF3
FFF5
0006
0009
0038
0006
0000
0000
FFF9
0000
000A
0008
FFEB
0002
0015
FFE8
0009
0005
0012
FFED
FFF9
FFFB
FFE2
FFFB
FFFA
0005
FFF8
0002
FFF0
FFFC
0000
FFFA
0025
FFFF
000C
000B
FFFE
0016
FFF1
FFF9
FFFE
FFE4
FFFB
FFEC
FFFD
0016
000D
000C
001C
FFFD
FFF1
FFFD
0012
FFFE
FFF5
0003
FFF5
FFCD
FFEC
FFEC
0004
0001
FFFD
0013
0003
FFFF
FFFA
0003
0002
0002
FFE2
0008
000A
0000
0027
0005
FFDD
0006
FFFC
FFEC
FFF5
0019
FFEC
FFE2
0009
FFF5
0010
0010
FFF0
FFFB
FFF4
001E
FFF2
0008
FFF5
0008
FFF0
FFE8
0002
0007
FFFF
0035
000F
FFFC
0002
0010
0003
0027
FFF9
0020
0005
FFE9
FFD6
FFFD
001B
FFF7
FFEC
0012
FFFC
0018
001E
FFF9
0012
001D
FFF9
0004
0015
FFFE
FFF4
FFF9
000E
FFF9
0000
0001
000A
FFF2
0019
FFE4
FFFD
FFF1
FFFC
0003
FFF9
0003
0000
002A
FFEC
FFF8
FFE0
FFDF
0008
FFE0
FFFF
FFDC
FFFF
0024
0010
FFEA
0010
0009
FFE8
FFFF
FFFD
0003
0000
001B
0003
0004
000D
0004
FFFD
FFEC
FFEE
000B
0006
FFE8
FFCE
FFF4
000E
0002
FFF4
0006
0027
000C
000D
FFFE
0019
0012
0017
FFF9
0025
0022
FFF9
0013
0007
FFFD
0002
FFEF
001D
FFFB
0003
FFE1
FFDF
0025
0006
0015
0008
0000
000A
FFC1
0009
FFFE
001F
001A
0010
FFE1
FFFA
000B
FFEF
FFE1
0003
FFDE
FFE5
FFF9
FFF7
000F
FFE1
0028
FFF5
0001
FFF1
0001
0013
000A
FFF1
FFEC
FFFF
0021
FFFF
0004
0006
0003
FFE7
FFFD
FFF9
FFF2
FFF8
0017
0010
000A
FFF4
FFED
FFFA
FFEE
0008
FFFB
FFFF
0013
FFFF
0001
FFFD
000A
FFEC
0001
0011
FFF5
FFE7
001C
FFEE
000C
FFFD
0000
0007
000D
FFF4
0005
0005
0017
000B
0008
FFED
FFEE
FFFF
0013
0012
FFEF
FFE9
FFE2
FFF5
0005
FFF0
0009
FFF5
0027
0005
000B
0001
0011
0023
FFF8
0003
FFFE
FFF5
FFF5
0007
FFFF
FFFC
FFF9
FFFF
FFFE
FFFB
001B
FFFF
000F
FFE4
000F
000C
FFFF
000D
FFE8
0002
0023
FFF9
0008
0001
0010
FFFF
0002
FFEA
000B
0010
0015
0000
FFEE
FFFE
FFFF
FFF3
FFFF
001F
FFFF
FFE3
001D
FFE1
FFF5
FFDF
FFF6
0006
0011
FFFA
0011
FFF7
0017
001F
000D
0006
FFFB
FFE8
0005
0002
FFFC
0005
FFE1
FFF0
0019
0003
FFD7
FFF9
FFFF
FFFD
FFF6
FFE8
0003
FFED
FFEF
FFF4
0019
0007
001B
FFED
001C
001D
FFF8
0010
FFED
FFFD
0008
0003
FFEE
FFFE
0012
0012
FFF7
FFFD
0017
0014
0014
000C
000F
0002
FFEC
0004
000A
0014
FFFE
FFF4
FFEB
001A
001C
FFDD
000C
FFF6
FFEB
FFEA
000F
000E
0025
FFFA
001F
001E
FFF2
FFF9
000E
FFFE
FFEC
FFF3
001A
FFF1
FFE3
FFEB
000C
FFF2
FFF9
0007
FFFC
FFF1
0003
0000
0003
FFF1
FFFA
FFFE
FFDD
FFF9
FFF9
0001
FFF6
FFF6
FFF2
FFFB
FFFF
000F
FFED
0015
FFEB
0014
FFF5
0018
0001
FFE0
FFFB
FFF3
0006
0010
FFFA
0004
0000
FFF7
FFFB
0000
FFF8
FFFE
0021
0001
0005
FFF1
FFF8
0007
FFED
0019
FFF8
FFFC
FFF6
000B
FFF8
0004
FFFC
FFEE
FFFC
FFF8
0007
FFFD
FFED
001B
0015
FFFA
0028
FFF5
0003
FFF1
0000
001A
FFCF
FFFB
0004
0005
FFF5
0016
FFEE
FFF2
001E
0002
0010
0001
FFFA
0006
FFED
FFFB
FFE7
FFEA
FFD4
FFEB
FFF3
FFF3
FFD8
000A
FFF4
FFFC
FFED
0030
FFFD
FFE8
0002
FFF9
FFE4
0009
FFE1
000F
0011
0008
000F
0006
FFEB
000C
0016
FFF6
000E
FFE4
FFF8
0028
FFED
001F
0000
FFDD
000A
0002
FFF3
0022
FFF5
FFF1
FFF9
FFCF
FFF5
FFF1
FFFF
0000
FFF7
FFF8
FFFC
0001
FFE9
0005
FFF1
FFFC
002C
FFF8
FFFD
0005
0006
0003
000A
FFFA
0004
000F
FFEF
FFDF
0019
FFFE
FFF6
FFFB
FFFD
FFFF
FFFF
0017
0012
FFEB
FFF9
0004
0002
0001
FFDF
FFFC
FFE9
0001
0004
FFFA
FFF6
FFFE
0001
0008
0002
FFE7
FFF3
0000
FFED
0034
FFFF
FFF6
0001
0000
FFDF
0001
FFF9
000B
0003
0004
0002
001F
0004
0002
FFFB
0008
0018
0026
FFF9
FFD1
0007
FFFD
FFFD
002C
FFE1
0000
000C
0002
002D
FFFD
0000
FFF2
FFF9
FFF3
FFE7
0007
FFF6
FFE8
FFD7
FFFF
FFD6
000A
0006
FFF0
FFF9
FFE0
003C
FFFE
FFF5
FFD5
FFFE
FFFD
000B
0008
FFFD
0005
002D
0002
0010
000C
FFF2
FFDD
FFE2
0005
FFF2
FFFD
0000
0020
0003
0005
FFE0
0021
FFF4
0017
FFFD
FFF1
FFFE
FFFF
0023
0001
0019
0004
FFF7
FFE6
FFDB
FFF7
FFF9
FFF5
FFFE
001F
FFC9
FFFC
FFE7
FFFA
0002
FFFF
FFF4
FFF4
FFFE
FFE8
0014
FFDD
FFE2
0004
002E
FFFE
FFEA
0020
FFFD
003C
0000
FFF8
FFFE
FFDF
0003
FFF7
FFFA
FFFD
000E
FFFC
001D
000D
002D
0004
001E
000F
FFEF
0003
0019
FFF2
FFFD
FFFF
0003
FFEF
FFFD
0002
0000
000D
0013
0001
0015
0005
0002
0004
FFFF
FFFC
0012
FFFD
FFF8
FFF6
0010
FFFF
0006
FFFC
FFFD
FFE1
FFFF
FFF2
FFFC
0000
0002
FFF0
FFFF
0007
0000
0003
FFFC
0001
FFFE
FFE9
FFFE
FFFD
FFFD
FFFB
FFFF
FFF9
FFDF
FFFF
FFF0
0000
FFFC
FFFE
FFF8
000A
FFFF
FFF4
0001
FFE5
FFFE
FFFE
0002
FFF2
0004
0004
FFF0
0000
FFFA
FFF5
FFEF
000B
0036
FFED
0000
FFE7
FFF9
FFF1
000F
FFEF
000D
FFED
FFF5
0030
0004
FFD7
FFF9
FFF0
0009
FFFD
FFF9
0005
0003
0003
0004
0012
FFD6
000D
FFF8
FFF5
FFF8
002A
FFF1
FFFF
0016
FFFC
001F
FFF6
001D
0014
0013
000F
FFFA
FFE3
FFF8
0006
FFDE
0014
FFFE
FFFD
000C
FFF4
FFD3
FFEE
000A
FFF2
0025
FFFE
FFE5
0000
0010
FFEE
000B
FFFE
0000
002A
0007
FFFA
0003
FFED
0001
000F
0005
000A
FFEC
0000
FFFC
000B
0010
000C
0009
0005
0000
FFFE
0010
0007
0016
FFF9
FFF1
FFEB
0008
FFE8
FFFB
FFE3
FFFE
0010
FFFF
FFFC
FFFE
FFFF
0004
0018
FFF0
FFE5
0007
FFFE
0010
FFFD
0005
0000
FFFD
0006
FFF4
0014
FFEA
0006
FFFB
FFEC
0010
0003
0002
0004
0007
000E
FFFD
FFF5
0007
0016
FFE6
0014
FFF0
000D
0008
000C
0004
FFEB
0021
FFFA
FFD3
FFF7
0014
FFF2
FFFF
0015
001A
0003
0008
000B
FFF1
FFEF
0008
0002
0002
001B
000F
FFF0
FFEB
FFFD
FFF8
0001
0003
FFFF
0005
FFF9
FFFB
001C
FFFF
0003
FFCB
FFEE
0022
001A
FFF0
0008
FFEE
FFD7
0006
0000
FFED
0017
0006
FFF7
FFF2
0007
0002
0019
FFFE
0009
FFF3
0001
000C
0006
0003
FFEB
FFFF
000D
FFF0
0010
FFFF
FFFB
FFF4
001A
FFF7
FFFE
0009
FFFE
FFF6
FFFB
0003
0000
FFFF
FFFC
001B
FFD5
FFFC
FFFE
0021
0005
FFFD
0026
FFFC
0008
FFE8
FFFD
0012
0006
FFF1
0028
FFF1
0024
0012
FFF8
FFFB
FFFE
0002
000A
FFEE
0006
0005
000B
0004
000D
0004
000C
FFED
000A
FFFC
FFF8
0003
FFFE
FFE6
FFEF
0000
0004
FFDC
000E
FFDB
FFF8
0021
0032
0001
FFE0
FFF7
0014
FFEC
0004
FFFE
FFD3
000F
FFD5
FFFA
000C
0000
FFDB
0020
0004
FFFC
FFF1
0014
0004
0002
0009
FFEF
FFFD
0013
000E
0016
0015
FFFF
0001
0003
000A
FFCA
0005
FFEC
001C
0029
000A
0027
FFFD
0024
0003
FFD4
FFE3
0017
FFF1
FFEB
0000
FFF4
0009
FFEC
0003
FFDC
FFFA
0022
0001
0006
001C
FFFD
FFFA
0009
000B
FFEB
001D
0004
FFFA
FFFC
0007
0001
FFE3
0003
0015
FFDE
FFEE
000E
0006
0000
FFFE
0013
0005
002B
0005
FFE2
0002
FFF7
FFEB
FFF7
000E
0006
0011
0021
0007
001B
0000
0010
FFFD
FFF5
FFF3
FFFA
001E
FFFC
0009
FFE4
FFFD
FFFE
FFF3
FFDD
0002
FFD1
FFEB
FFF1
FFEE
FFFA
0007
0026
0006
000C
0005
FFE5
002E
0002
0012
FFFD
FFFA
FFE0
FFFE
0014
000A
0008
000B
0004
0015
FFF9
0013
0008
0002
000F
FFF6
001D
FFCC
0001
0009
0004
FFFB
FFFE
FFF3
0008
0000
0006
0002
0001
FFF6
000C
0004
FFE5
FFFC
0002
0004
0028
FFFE
0001
000A
FFF1
FFEF
0001
FFF2
0000
0022
FFEB
0007
0017
FFF6
0016
FFFC
FFE5
0019
FFFD
FFF8
FFFC
0009
0008
FFFD
FFF9
FFE2
FFF2
FFE6
FFE8
FFF4
000A
FFDE
FFEB
000E
FFFE
FFF1
0003
000E
FFFA
000F
FFF8
FFE1
FFFF
FFFF
FFF5
001F
0005
0013
FFFC
0001
FFE7
FFEC
FFF7
0000
0007
0009
000F
0009
FFFF
0025
FFF2
FFF2
0029
FFFE
FFF0
0019
000B
0019
FFDA
0006
0002
FFF7
000B
000A
FFED
000A
0021
FFD2
FFF2
0002
0012
0007
0014
FFF7
0021
FFF2
0015
FFF5
FFFE
0010
FFF9
FFFE
FFFC
FFFE
0006
FFF3
000E
FFEF
FFF9
0020
FFF3
0010
0007
0006
0002
0011
FFEC
FFFE
FFF9
FFEB
FFFB
FFEA
FFFE
0000
0009
000D
0012
0007
0009
FFF1
0006
FFFD
0015
000F
FFE3
FFF8
FFF0
0001
FFF6
FFF8
0013
FFF6
FFFC
0000
0016
0009
FFD6
0005
0015
FFF9
000A
FFEE
FFFF
0006
0016
FFF9
FFE6
001D
0005
0005
FFE4
0006
0002
0004
000D
FFF3
0022
FFFF
0011
0005
0002
001C
0003
FFF8
FFFF
001B
0025
0003
0013
0008
0004
0029
000A
0023
FFFB
FFE4
0014
0001
0024
0009
FFE7
FFFC
FFFE
FFED
0002
FFF5
FFEC
FFE6
0012
FFE6
0001
FFFC
0001
0006
0014
FFF7
001B
FFFB
FFF6
FFFD
0019
FFFC
0000
FFF8
FFE5
FFF8
FFF0
FFE4
000B
0007
FFFF
0005
FFB1
0002
FFE5
FFFA
000B
FFCA
FFFF
FFFF
000A
FFDA
0001
001A
0002
FFE3
FFF6
FFE5
FFF9
FFFE
0000
001B
FFF7
FFF3
FFEB
0017
0008
0004
FFE2
FFFE
0018
FFF8
FFFD
FFFC
FFEC
0001
FFFF
0015
0012
0022
001C
000F
0013
000B
0024
0002
000B
FFEC
FFEB
0000
000F
001F
FFE9
0002
000B
0014
0005
FFF6
FFFC
0029
0002
FFF8
FFDD
FFFC
000E
0016
000B
0018
001F
FFD9
001D
0008
FFFD
001A
FFEA
FFEA
0021
0009
0002
FFFD
FFF7
FFFC
FFFC
001F
FFF2
0007
0025
FFF0
FFFC
FFFB
0004
FFF6
FFEE
FFE2
FFEF
FFFE
0024
FFED
0006
0002
0004
FFE5
0007
0008
0011
0000
FFF9
FFFC
FFFC
0001
001A
FFE7
FFFC
FFFE
0008
FFDF
0025
FFEC
FFE5
FFE5
0009
FFFA
001B
001F
001E
FFF2
0015
0007
000C
0014
0006
0003
FFFA
FFEA
0009
FFFE
FFE4
0002
0016
FFE5
FFF7
0002
FFF9
FFFA
FFEF
FFF4
FFFE
FFF8
FFFE
0006
FFF9
0001
000F
0009
0020
0006
0004
0013
FFFD
FFF9
0009
FFDF
000C
0000
0008
FFF9
FFE1
000B
0005
FFFA
0003
FFE3
000E
FFFD
0002
0007
FFF4
FFF2
0002
001B
000B
000D
001A
0013
000E
FFF0
000F
0009
0005
FFED
000E
FFF3
FFF0
FFF9
0011
0007
0000
0002
000C
FFF6
0008
000A
0018
FFDF
FFEE
000D
000A
002F
FFEC
000D
0007
0018
FFF5
FFF6
0003
FFF4
FFEE
FFF5
001D
0002
000D
FFF4
FFF9
FFFD
FFF9
0013
000E
FFF1
002B
FFD2
001C
002D
0014
0024
0008
FFEA
FFF7
FFF4
000B
FFE4
FFF9
001F
0003
000F
0008
FFEB
FFDF
001E
0011
FFDF
001F
0013
FFF4
FFD1
0015
0001
FFDF
FFF1
0013
FFFF
FFFF
FFEF
FFFA
0000
FFF0
FFFF
FFFA
FFF9
001F
0011
FFF0
FFF6
0001
FFE8
0009
FFEE
FFDF
FFEE
FFE0
0015
0014
FFED
0003
FFDF
000C
0003
0001
0001
FFD6
FFF8
0013
0000
0008
FFEA
FFE9
0009
0005
000C
0016
0015
0004
0007
0023
FFE6
FFF8
000F
001A
FFF7
000A
FFF2
FFF8
FFF5
0019
0001
0019
0010
0013
0028
FFF6
0015
FFF8
FFF8
FFF6
FFF8
FFF1
FFFF
FFFA
000D
FFEF
000C
FFFE
FFFF
FFE3
FFED
FFF5
000B
0009
0019
FFFE
0008
0001
0015
FFEF
FFF4
0010
001A
0002
0014
FFF4
0004
000D
FFFC
FFFD
FFF8
FFEF
0004
0003
001F
001F
FFF3
FFFF
FFFD
FFFE
FFF4
0004
0005
FFE5
0007
0002
0008
FFE0
0006
0006
FFF4
FFE2
0019
FFFA
000A
000F
FFE0
FFE1
0003
0006
0017
000A
000D
0026
FFFF
0008
FFF6
0003
0009
FFF1
0005
FFFF
FFFC
0000
FFFC
FFFE
FFF2
FFED
0002
FFC4
0000
0000
FFFC
FFFF
FFFF
FFFA
FFFE
0002
0000
FFF6
FFFF
0003
FFF2
FFFB
000B
FFFB
003F
0002
0005
FFFA
0004
FFF6
FFFA
FFFF
FFFE
FFFE
0023
0001
0007
FFFC
0007
FFFA
FFFE
0000
FFF4
0011
FFFE
0002
FFF3
0002
0001
FFFF
FFF7
FFFF
001A
FFFB
FFF7
FFFF
FFFC
FFFF
0004
0004
0001
FFF1
FFFD
0009
FFF4
0012
FFE7
FFF6
FFE0
FFFC
FFE1
0000
FFFF
0005
000E
FFEE
0015
FFEC
FFED
001C
0000
000C
FFF6
0011
FFFD
0008
0022
FFF4
0000
FFF0
000B
0004
0006
0003
0006
FFFD
FFFF
FFF6
FFFC
FFF1
0018
0006
000C
FFFF
000E
0000
000A
FFEC
FFFD
000C
FFF4
FFFD
FFFA
0003
0003
0012
FFFB
0004
FFFF
FFF1
FFF9
000C
FFF6
FFF4
FFF5
0008
0003
0001
0007
FFFB
0001
0003
0000
0004
FFFB
FFE8
0009
0005
0008
0006
0002
0011
0000
0005
0003
0016
0002
0002
0028
FFF9
0014
FFFE
FFD8
0012
0002
FFFC
000F
0020
000A
000B
0006
FFFE
FFE5
0009
FFF9
0012
0027
FFF8
FFFD
0001
FFE1
FFF6
0006
FFFC
0007
0000
0003
FFF4
000C
0007
0026
0000
0004
FFFE
0006
0001
0009
000B
000B
FFE3
0007
001A
FFF4
FFE7
FFE8
0016
0006
FFF5
FFFD
FFDE
0004
FFF1
0006
FFFA
0016
000E
FFF2
0006
0014
FFF2
000D
FFED
0003
FFF6
0013
FFFD
FFFF
0024
001B
FFE1
FFEA
0023
0029
0005
0001
0001
FFF5
FFF4
0011
0011
0013
FFF9
000C
FFEB
0000
FFE8
000B
0025
FFFF
FFFB
FFEE
FFEE
000D
0016
0012
0003
002E
FFED
0008
FFF5
FFF3
FFE6
0000
0007
FFF9
0003
FFF9
0004
000F
FFF2
0012
0004
001A
FFFE
0019
FFE6
0009
FFDF
FFFE
FFE9
FFE3
FFE0
FFE2
FFFF
FFD7
0000
0004
FFEB
000E
000B
0000
0014
0027
0006
FFF9
0003
0005
002F
001C
FFFB
0000
FFF0
0026
0005
000C
0010
FFE1
0004
FFF6
FFF5
FFE8
FFE9
0001
001B
FFFC
FFDB
000B
0002
000A
001C
FFEF
0000
0008
001A
0003
0014
0012
FFF7
FFDF
FFF1
FFFB
FFE7
FFFB
FFFE
000D
0001
FFFF
0004
FFFD
0004
FFE2
000D
FFFA
0022
000D
FFF6
FFFF
0003
FFF6
0006
0004
FFF3
FFF6
0022
FFFC
FFEC
000E
FFFB
0014
0001
FFFD
FFF5
0002
0011
0001
FFFF
FFFD
FFFC
FFEF
0001
FFF7
FFFC
0003
0012
FFFB
0010
0002
001F
000C
FFFE
0010
0000
FFFA
000F
FFF4
0000
FFF8
FFF3
FFF6
FFF8
FFEF
0005
FFF8
0014
FFF1
FFF7
FFFB
FFFA
FFFA
FFFF
0033
FFFD
003D
FFC7
0008
FFF1
FFEC
FFFC
FFEA
0002
0035
0003
0008
000F
FFFA
000A
0012
FFE6
FFFD
FFF1
FFF6
FFF5
FFFC
FFFC
FFE6
FFD8
000D
000A
0003
FFE5
FFF6
0015
FFED
0034
0008
0012
0004
0001
000D
FFFE
0007
FFF4
FFF8
002F
0000
FFD4
FFF4
FFDF
0006
0001
FFD4
000E
0009
FFF9
FFF1
0003
0000
0006
FFF9
0026
FFFF
0014
FFFD
FFEB
0014
FFFE
0017
FFFA
0014
000B
FFF3
002E
0009
0017
FFED
0006
0002
0000
0002
0005
FFED
001E
0003
0029
001B
FFF9
FFEE
FFF7
0012
0005
FFF0
0016
0006
0005
FFF9
FFE8
000D
FFE8
0023
FFE7
FFE9
0006
FFCF
FFFE
FFF2
FFEB
FFFE
0006
0007
FFE8
0012
0007
000D
0010
FFFD
FFF6
000B
FFFD
FFFA
FFE9
0008
001D
FFE9
FFF0
0000
FFE8
0010
0000
0002
FFFD
FFEC
0022
FFF0
FFF7
FFFE
FFFF
FFF4
000B
000A
FFE2
0004
FFFA
FFFB
FFF9
FFFF
0009
FFFF
0019
0011
0026
0020
0000
0009
001D
FFFE
000F
FFFF
0010
FFE7
FFFD
0014
FFFF
0008
0010
0007
0025
FFFC
FFEF
FFFA
FFEF
0002
000E
FFF8
FFEB
FFF3
FFF4
0014
FFFF
FFE8
0019
FFE2
0002
0019
000A
0006
0004
FFEB
000C
000B
0016
FFDC
FFFD
FFD8
0006
0009
FFE3
0014
FFF2
FFF3
FFE7
001A
FFFE
0005
FFF9
FFF4
000B
FFFD
FFF6
0007
FFD9
0000
0002
0018
0005
001F
001B
0005
000A
0002
0022
FFFF
FFF9
FFF7
FFF8
FFE4
000B
0018
FFDA
0005
FFF9
0013
0000
0000
0009
0029
FFF7
FFF8
FFE4
FFF7
000A
FFF4
0004
0024
000D
FFF3
001E
FFEF
0000
001D
000E
0025
FFE5
FFF2
FFF1
FFF6
0025
FFF5
FFF7
FFFF
FFF2
000E
FFF4
0000
001F
000C
0001
FFFA
FFD9
FFFB
FFF5
0003
FFFF
FFF3
0003
0001
FFC3
FFF3
FFFA
0002
0035
FFEC
FFF2
0004
FFEA
FFFD
0004
000D
0019
0003
FFFF
0007
0004
FFF8
FFF7
FFFF
FFD7
0027
0005
FFF6
FFED
FFE0
0007
000A
FFFC
0023
FFF2
0005
0009
FFEA
0003
0002
FFF9
0008
FFF0
0003
0001
0013
0006
FFF7
0000
FFEB
0001
FFF6
0020
FFE9
0013
0006
FFDE
FFF4
FFDC
000D
FFFD
0018
0017
0003
0001
0002
FFDC
FFFE
0005
0006
0003
FFF5
FFF1
0002
0006
000C
FFF6
FFFD
FFF5
FFEB
000D
0017
0000
FFDE
000D
FFF0
FFDE
0037
0009
FFFE
FFFF
0007
001D
000B
0009
000F
0001
0009
0000
0001
FFEC
0005
FFF5
0015
FFF0
FFFC
001A
0013
FFE3
000A
FFFD
FFE8
0002
000F
FFFF
0003
0019
0003
FFF1
FFF7
0010
0007
002A
FFFE
FFFE
FFD0
FFF6
0001
FFF0
000D
0006
FFFF
FFFE
0010
FFFF
FFF4
FFFF
FFEB
FFDD
0028
0004
FFFF
0008
0002
FFEF
FFFB
001A
000C
FFDF
0021
FFF7
001A
0015
FFFB
FFDD
0008
0013
000F
001F
FFE7
FFFC
000E
FFEC
000B
FFCB
000D
0002
0005
0023
FFDC
0007
0004
FFE5
FFF1
0006
0002
0008
0016
000A
FFFC
0003
FFF4
0002
FFF9
0000
FFFC
FFFC
FFE2
FFFF
0005
001E
FFFB
FFF7
FFFE
FFD7
FFFC
FFFE
001A
FFF9
0004
0009
FFFB
FFFE
FFCB
FFFC
FFF7
0013
0005
FFF0
0003
001E
0013
FFFA
0005
000F
FFE4
0010
FFFB
0015
000C
000B
FFF7
000D
0001
000A
000E
FFF7
0005
FFFB
0003
FFFF
0029
0003
0006
FFF6
FFF6
0018
FFED
0011
FFF5
0001
FFEE
0007
0016
FFE3
0004
001F
FFFC
0000
FFFA
0004
000B
FFFB
FFF8
FFE0
FFFB
0019
FFFC
FFEA
FFFD
0004
FFF8
FFFA
FFFE
0008
FFF1
0011
FFFE
FFFE
FFFB
0004
000C
FFF2
FFF7
0013
FFEE
0014
FFF5
FFE5
FFFB
FFF8
FFFA
0010
0016
FFF8
0002
FFFE
FFFD
0014
FFFE
0011
000B
0001
FFF9
0013
FFE8
FFEE
0014
FFE7
FFFE
0007
0011
0005
FFFF
0000
FFEE
000B
0002
001D
FFEB
0014
000F
FFD6
FFDA
FFD6
000B
0002
0013
0007
0000
0003
0004
FFE3
FFFF
0008
FFFE
0008
FFFB
FFF4
FFF0
0014
0012
0002
0000
0006
FFF5
0009
FFFB
FFF5
FFFE
0007
0001
FFF5
0026
0000
FFF2
0001
0010
FFFF
FFF5
000C
FFFA
FFF9
0013
FFFC
FFFE
FFF2
0000
FFEB
0017
0002
FFF3
FFF0
0018
0006
FFEC
FFFC
0015
0000
0010
FFF8
000F
FFF0
FFF9
0022
000E
0015
0007
FFE7
FFF2
001A
000E
0006
0009
0013
FFFC
002A
0000
FFF8
FFE7
FFCF
FFDF
FFF8
FFF5
FFF4
FFFB
FFE1
FFF8
0009
0012
000E
0005
0004
FFE8
0024
FFF7
FFED
FFE6
0001
0004
0001
FFE0
FFFB
FFFF
0028
000F
FFF4
FFFC
0001
FFEB
FFF2
001D
FFE2
0000
FFFA
FFD9
FFE2
FFFC
0007
FFFC
FFE9
FFE5
0003
0003
FFFB
001D
0000
FFCE
FFFC
0013
0018
0014
0005
000D
000D
FFF3
FFEF
FFFE
0003
FFDF
001E
FFFC
0000
0003
0004
001D
FFEA
002C
0016
0026
0004
0003
FFED
001D
0008
FFEF
FFEB
FFF7
FFFD
0002
FFF4
0013
FFFC
0001
FFEE
0006
000A
FFFC
FFFD
FFF6
FFF3
FFF4
0001
FFF7
0010
0002
0000
FFE8
FFFF
0006
0003
0030
FFF8
FFFA
FFFD
FFEA
0004
FFF7
FFFF
FFFA
FFFA
FFF3
FFF9
FFFC
0002
FFFB
FFFC
FFFE
002D
FFFD
FFFF
0003
FFF7
FFF0
FFFC
0000
FFEB
0004
FFF8
FFE3
FFEE
FFEC
FFF6
FFF9
FFFE
FFFD
FFF7
FFFA
FFF1
FFE6
FFFB
0000
FFFD
FFF8
FFFE
FFFD
FFE1
0010
FFFB
FFFB
FFEC
FFFF
FFFA
FFFB
FFFD
FFDE
FFF9
FFFD
FFF5
004F
FFFB
FFFA
FFF2
FFFC
0000
0005
000F
0002
FFFF
FFE7
000A
FFD7
FFFA
FFF5
FFF4
FFFD
0017
0008
0008
0005
0039
001E
FFF5
FFFB
001C
0003
FFE5
FFED
0009
0004
0000
FFF9
000E
FFED
FFE6
0013
FFF7
FFDC
FFF4
FFFF
000E
FFEE
FFCE
FFEC
000C
0014
0005
FFF7
FFF9
001B
0001
0008
0013
FFFB
FFFE
0022
000E
0006
FFE1
000A
000B
FFEE
FFFE
0000
FFD7
FFE8
FFFA
0008
0001
0006
0016
000D
0008
FFE1
FFFF
000D
0007
FFFC
FFF9
FFE0
000C
FFFC
FFFB
0000
FFFA
000B
FFEC
0012
FFFA
FFFB
FFF2
0025
000B
FFFD
000A
FFFB
0006
0003
0009
FFDF
FFFC
0009
0001
FFFE
0007
0006
FFED
FFF9
0017
0007
0002
0006
001A
0003
FFF6
FFFD
FFFB
FFFA
0001
FFD6
FFFC
0001
FFF9
0012
FFF5
FFF4
FFFC
FFF2
0001
FFFB
000B
FFF5
FFF1
0007
000E
FFF7
0000
000E
0002
FFEA
FFFF
FFEE
FFF1
FFFC
0016
0003
0009
FFF3
FFFF
001C
0000
000E
FFE0
FFFF
000E
FFF4
0007
0002
0006
0004
FFEA
FFF9
0004
FFF2
0030
FFEC
FFEA
0001
000C
0013
FFFB
000F
0011
FFE4
0003
FFFA
000E
FFF8
FFFB
FFFF
FFFA
0016
FFFC
FFFB
FFE0
0005
0012
FFFC
0015
FFFE
0019
FFFF
FFFC
FFF2
FFF6
0023
0008
FFF2
FFFE
0005
000F
001B
0005
FFF0
0007
FFE9
FFFE
FFC6
001B
0001
001F
000C
FFF5
FFE8
000A
FFFB
FFE0
0005
FFFB
0000
0009
0000
0016
0041
FFE8
0018
0004
FFF9
FFD8
0001
0001
0002
FFF3
FFFD
0012
000B
FFFE
0015
001A
FFF7
0008
0007
FFF9
0008
FFE2
FFF0
FFF4
FFE3
FFF6
0013
FFE1
FFF3
001B
FFED
0026
0001
0001
0010
FFFD
FFEE
0017
0000
0001
000C
FFF5
0001
0001
0019
FFFC
001D
FFF6
0007
0006
FFF9
FFFB
FFF6
0002
0010
FFFF
0006
000B
0001
FFF3
0018
FFF6
0004
FFFF
0003
FFEF
FFF2
FFF8
FFE5
FFF0
000D
FFF8
FFFA
0003
FFDB
0014
0006
0002
FFFD
FFFE
000E
FFE5
FFFD
FFFB
FFF8
0001
FFFB
0008
001B
FFF1
FFF8
FFF5
FFFF
000D
FFF0
000F
0003
0009
FFFE
0009
0007
FFFA
FFFD
FFEF
0005
FFEB
0010
0004
0003
FFF9
0016
0013
0005
001E
FFE6
FFF2
FFFC
0018
FFF8
FFF5
001B
FFEF
0001
FFE9
0003
0005
0002
FFFA
FFF4
0005
FFF8
FFFF
FFF8
0009
0012
0001
FFFF
FFE7
FFFE
0002
FFEF
0020
FFFE
000F
0007
0011
FFF2
FFFF
FFFF
0013
FFE9
0004
FFF5
FFEF
FFF7
FFE7
0003
0001
003C
FFF9
0002
FFE5
FFFB
0008
000C
0001
0008
FFFF
FFFF
FFFC
0006
FFF9
FFFF
FFC6
FFFE
FFFE
FFFE
FFF9
0000
FFFD
FFFF
FFF9
FFFD
FFFC
0003
FFFD
FFF7
0001
FFF6
0001
003C
FFFC
0000
0003
FFFD
0001
0001
FFFB
0002
0000
0019
FFFB
FFF7
0000
0010
0006
FFFE
0002
FFD4
FFF5
0004
FFF9
FFF9
FFFA
0001
FFFD
000D
0001
002B
0003
0006
0001
0001
FFFF
0006
FFFF
FFFE
FFD0
FFFF
FFE1
0002
FFE6
FFF2
0009
001E
0000
0007
FFFF
FFFC
FFFB
FFDE
0002
FFFE
FFF1
FFF0
000D
FFFC
FFF8
0010
0002
0005
000D
FFFA
0003
0001
0004
0008
FFF8
FFFB
000A
0003
0011
0009
000B
FFFC
0022
FFEE
000E
FFFD
0010
FFFF
FFF1
0000
FFFB
0014
FFFC
0004
0001
0000
FFE6
FFFF
FFE9
FFFD
0016
0004
0017
0007
FFFA
FFF8
FFFF
FFFE
0004
FFF4
0003
FFFD
FFEB
FFFA
0001
FFF2
FFFF
0004
0016
FFF6
FFF3
FFFE
0001
0012
FFF0
FFF7
FFFD
FFF7
FFFF
FFFF
FFFB
FFFF
FFFE
0000
FFFD
0004
FFE2
0002
0004
000E
FFF5
FFFA
0000
0010
0003
000B
000F
0015
FFFA
FFD0
FFED
FFFF
0000
0045
0009
FFF3
0002
FFF9
FFF7
FFF6
0004
0000
FFF7
FFAF
0005
FFF2
000D
0014
0004
FFFE
FFF8
FFFA
003B
FFF6
0002
FFF4
000A
FFE2
FFF6
0003
FFFC
0003
FFF3
FFEC
000E
0000
FFE8
001A
0013
FFF0
FFFC
FFED
0004
0021
0008
0007
0009
000A
FFE6
0008
FFFE
FFE0
FFE6
FFD1
0006
0020
FFF7
0011
0019
FFFF
FFF8
0002
002F
0002
FFFC
0007
0007
FFF7
FFF9
FFF4
001A
0003
FFDC
FFFF
0013
0015
FFFB
FFFD
000D
0009
FFE7
000B
FFFD
FFFA
0014
FFFA
FFFA
0001
0007
0007
000A
FFF5
FFEF
001E
0016
0007
0007
000B
FFDD
0005
FFF8
FFDB
FFE9
0024
0019
FFF2
FFF1
000B
FFEA
0002
0008
000A
0022
FFFF
FFEA
000F
0001
FFE2
FFEC
001D
FFEF
FFEC
FFF3
FFFF
000E
0023
FFFD
FFF6
FFF2
0024
FFEC
0000
0001
FFD3
FFEC
0011
FFFB
FFF3
FFFA
0001
FFE7
FFFE
000F
0008
FFFD
FFFE
000C
FFF9
0008
FFF7
0002
0005
0020
0002
FFF2
FFE6
FFF5
0017
0003
0012
0002
FFD6
0003
001B
0000
FFD4
FFFB
FFE5
FFF1
FFE7
0007
FFFE
0011
FFFF
0019
FFFB
FFEB
0000
0011
001E
FFE2
0015
000E
000B
FFEB
FFF4
0015
FFFE
FFF5
0019
FFF8
000E
000D
0013
0005
0010
0008
0002
FFF6
0004
0033
0019
FFF5
000B
0006
0000
0000
0000
FFF5
FFF5
FFED
FFFE
FFE6
FFEE
000F
0004
0030
0003
FFFA
FFF8
000B
0027
0005
0000
FFFD
FFE1
0001
0029
0005
FFDB
FFDB
FFE3
FFF5
FFF1
0006
0003
0011
0003
FFFF
001E
FFE7
0007
FFFA
0011
FFF0
FFE5
000D
FFDE
FFEF
FFDD
0005
FFF7
000F
FFEC
0001
0007
0013
0010
0007
0010
0017
FFEB
FFFF
0000
0021
FFFD
FFF1
0005
0007
0003
000B
FFFA
FFFE
FFFE
FFE7
FFF7
FFFE
0013
000C
FFFB
FFE6
0010
FFEF
FFC7
000B
FFF8
FFFB
0019
0002
0000
0003
0003
FFF9
FFDE
FFE1
FFED
FFF1
000C
0004
0018
002E
0001
FFFB
0011
001F
FFFD
0008
0000
0016
0005
000F
000B
FFDA
FFF7
0001
0003
0006
FFDE
0006
FFF5
FFD8
FFF4
FFF7
0008
FFDF
FFF5
0003
FFFE
FFDF
0019
000C
FFFB
000E
FFF3
000A
0016
0033
0017
0031
0000
FFF0
FFF0
0006
0002
002F
0003
0009
000A
0003
0013
FFFE
FFF9
0001
FFF4
FFFF
0027
FFFA
FFD7
FFD8
FFED
0004
0007
FFFD
0005
0008
0004
0004
0030
FFFC
0001
FFFF
FFFB
FFED
FFD5
0013
FFBC
FFEF
FFFD
0004
0001
0000
FFCB
001A
000D
FFFD
FFFE
0006
FFFC
FFEA
FFF8
0002
0001
001C
0002
FFF0
001A
FFF4
0019
0003
FFFF
000A
FFF2
FFF1
FFFC
FFF4
0001
FFFA
FFF8
FFFF
0007
FFF7
0006
FFF8
FFEA
FFFE
FFDC
FFF7
FFFB
FFDE
FFF5
002B
FFED
FFF1
FFFA
0020
0000
FFFC
0004
FFF0
FFFE
0023
FFF2
FFE5
0003
FFDD
FFFF
000E
0013
FFE6
FFEA
0015
0018
000B
FFFF
0001
FFE6
FFF4
FFDE
000A
FFE4
0017
0014
0009
FFCF
FFF4
FFFA
FFEB
0025
0020
FFFA
001E
FFE4
0029
FFF1
0002
FFF9
0015
0007
000A
FFF0
000C
FFFE
001B
FFFD
0017
000E
0010
0009
0002
FFF3
0003
0012
0001
0004
FFF6
FFF9
FFFD
0002
FFF4
0008
0002
FFF8
FFEB
FFFD
FFEC
FFF2
FFF0
FFFE
000E
FFE6
000D
FFF9
0006
0010
FFEA
0001
FFF7
0002
FFE1
FFFD
0008
0001
FFF0
0005
0008
FFF3
0018
FFF4
FFFC
0006
001F
000C
0018
0001
0031
0011
FFCB
FFFB
FFE4
0004
FFFA
FFFE
0015
000C
FFFA
FFEB
000F
FFE0
FFF1
FFE9
0013
0011
0000
000C
0006
0002
FFFC
0008
FFF7
0011
0010
FFF4
0008
000E
FFE1
0012
FFF1
FFFC
FFF7
001D
0002
FFF8
000F
0002
FFE0
0001
001F
0024
0002
0003
FFFF
0001
0000
0014
001E
000C
0001
0002
FFF4
0019
FFEC
0004
0028
FFF3
FFF7
FFF4
FFFF
0024
0010
FFF2
FFFE
0022
FFEA
0006
FFF8
FFD6
FFEB
0003
001E
FFF1
FFE6
0007
0020
0022
FFE0
FFFA
FFF9
FFEC
FFFE
FFE5
FFCF
FFF8
FFD8
0014
0002
FFE4
0016
FFEC
0006
FFF4
FFF0
0006
FFD2
0009
0011
0000
FFF5
FFEE
FFDE
0016
0003
0005
0007
000F
0009
0001
002F
FFF9
FFF3
FFE3
002C
FFE4
000E
002B
0022
FFF7
0020
FFEF
0016
000A
0010
000A
FFFF
FFDD
FFFE
FFFF
FFFB
FFF8
FFF6
0006
FFFB
0002
0027
0007
FFF4
FFFE
0004
FFEB
001F
FFE2
FFFD
002E
FFF9
000C
FFF2
FFE4
FFF9
000E
0009
0014
001A
0024
FFFA
FFDB
FFF8
0007
FFE1
FFDD
FFF8
FFF8
FFFE
0004
FFE8
FFF6
FFE4
0016
0016
FFF4
FFF2
FFF9
FFF9
FFDC
0011
FFF7
FFEF
0028
0026
FFFA
FFFF
000C
000B
FFF3
0008
000B
002C
FFD2
FFEA
FFF6
0031
0003
FFCD
0016
0020
FFFD
FFD8
0022
FFFB
FFF7
FFFB
000A
FFF1
0008
FFF2
000D
0003
0013
FFF4
FFD6
0000
FFFC
0006
0001
000E
0011
FFCD
0035
0002
FFF5
FFFA
0002
0011
FFF4
000E
0005
FFF2
FFE7
FFD4
0002
FFFA
0006
001D
001D
0007
0002
0009
000F
0001
FFE9
0014
FFF7
FFD7
001E
0013
FFE3
FFFE
0000
FFF4
FFEC
FFEA
001F
FFDE
FFEE
0001
FFFE
001E
000D
FFF9
0001
FFE7
0031
0017
0011
FFDC
0006
002E
0007
FFFE
FFFA
FFF7
002A
FFFB
000D
0017
0009
FFF0
FFFB
FFEE
001E
FFDE
FFDC
FFF8
FFE2
0020
FFFE
FFF5
FFFE
001B
0007
FFE9
FFE0
000E
0012
FFF1
FFF7
FFEA
FFE7
FFF9
0003
0014
0003
0007
FFE0
0000
0017
001F
001D
FFFC
0023
FFFC
FFFD
0026
0013
FFEB
0005
FFD6
FFEA
FFD5
FFFA
0016
0000
FFE9
0004
0013
0010
0015
000F
FFF0
001E
0008
000B
0002
FFF5
000C
000E
FFFF
FFFE
FFF7
FFFE
0006
FFF6
0001
000B
0002
0004
0008
0007
0010
FFFF
000D
FFED
000A
0005
FFEA
FFDD
FFDD
FFE9
FFE7
FFFA
0000
0002
FFF4
FFFE
FFFC
000A
FFF0
0003
0002
FFF8
FFFD
0006
FFEF
0004
0000
000D
0003
FFF3
0005
FFFE
001D
FFF7
FFFD
0003
0004
0004
FFFF
0015
FFFB
FFF8
000B
FFF4
0013
0018
0012
0026
002D
FFFC
FFFE
FFF3
0004
FFEA
000C
0007
0021
0028
0003
000A
0000
FFC2
0003
FFEB
FFE9
0000
0007
0011
0001
0000
FFFD
0004
FFD7
000E
0017
0000
0029
FFF6
FFC1
0000
FFC6
000D
FFEA
000C
0024
0016
FFFB
FFFC
000B
0006
0006
FFFC
000B
FFEE
FFFF
0005
FFCF
0007
FFE7
0011
0000
FFDB
001C
FFFF
0003
FFFE
FFFC
FFF2
0008
0009
FFFD
0006
0004
0010
FFE7
0000
FFA4
0001
0001
FFFB
FFFF
0005
0003
0001
FFFD
0003
0005
0001
0003
000B
FFFD
FFF0
0001
000C
001C
0002
0004
FFF7
0019
FFFE
FFF9
0008
0004
FFF0
0001
FFFF
0002
001E
0007
0003
0005
FFC3
FFFD
0004
FFFA
FFF7
0001
0006
0004
FFFC
0002
003B
0004
002C
0004
FFFE
0000
000D
0002
0001
FFDA
FFFE
002F
0004
FFFB
FFF9
FFF6
0023
FFFC
0008
FFF4
FFD5
0002
0027
FFFE
FFD8
FFE3
FFDD
FFE9
FFE4
FFFF
000E
0014
FFFB
0018
0024
FFEB
0006
000F
0016
FFF1
FFF1
0024
FFD8
FFE0
FFEE
0017
0002
0000
0005
FFF7
000F
001B
000A
FFF5
000A
0005
FFF0
FFEB
0009
002D
0008
FFED
0019
0010
000A
FFF6
000D
0006
FFEF
FFE7
0001
FFF3
FFF1
000A
0004
FFD6
000F
0015
000D
000D
FFE9
0001
001B
FFFC
0008
0000
FFFD
FFFA
FFF7
000C
0002
FFDB
0005
FFFB
FFF5
FFE1
0003
0024
000B
0008
FFFC
0002
FFF5
FFC9
0000
0001
FFFC
FFE8
0002
000B
0000
000D
0010
0005
FFF1
FFFE
FFF0
FFF8
0006
FFD0
FFEF
0015
0008
0009
FFE1
0001
0020
000C
0000
0005
0003
FFFE
0013
FFF9
0007
0007
000B
000A
0002
FFF3
FFD7
0027
000E
0013
0014
FFDA
000B
000F
FFFB
0010
0000
000D
0006
FFCF
0003
0008
000B
0024
0003
0007
FFF8
FFF8
0003
0002
0004
0029
001C
0005
FFE9
FFCC
0018
FFFF
FFFB
0019
000A
0003
000D
FFD8
0011
0003
0002
FFFC
0003
0005
FFF5
001E
FFD5
0001
FFFB
001B
0023
FFF0
0006
0003
FFE6
000C
FFFA
FFF7
000F
0001
FFEE
0006
FFF8
0004
002B
FFF6
000C
FFE9
FFF2
0001
FFED
0004
FFE2
000A
FFE7
FFED
FFE9
FFFE
FFF3
0016
000A
0026
000A
FFFD
0001
0006
FFE2
FFED
0002
FFEA
0013
0014
0001
FFE4
FFDB
0007
0015
0000
FFFF
0001
FFE5
FFDE
FFEE
0007
FFFA
FFE9
0008
001E
FFF7
FFD2
000B
FFE0
0000
001C
FFE6
FFF4
FFF3
0015
FFD5
FFF6
FFFA
000C
002E
000B
FFFD
0002
FFF6
0006
FFFF
FFF2
FFF9
FFD8
FFFF
FFFD
0000
0002
0018
0022
FFFB
002B
FFE0
FFFF
FFF1
0011
FFF0
FFFF
0025
FFF3
FFFE
FFDE
FFFD
0003
FFFD
0004
0002
000A
0000
0000
0002
0000
000F
000A
0001
FFDE
FFFD
FFFA
0000
002C
FFFF
001C
FFE5
FFF9
FFEF
FFFE
0001
0017
FFDD
0007
FFF7
FFE4
000F
FFE1
0000
FFFA
004D
FFFE
FFFF
FFE1
FFFC
FFE8
000C
000D
000B
001D
0016
0008
001B
002F
000C
FFFA
FFEF
000B
FFD9
0006
FFFF
FFE8
FFEA
0005
0004
FFCB
FFF1
0004
0003
FFFB
FFE6
0000
0018
FFEA
FFDD
0013
0007
FFD1
0022
0002
0004
0014
000F
0009
FFEC
FFEF
0004
FFFF
FFEC
FFEF
FFF2
0003
FFF7
000C
0025
000D
FFF6
002A
0001
FFEF
0007
0004
0034
0005
FFFB
FFFA
FFD7
0003
FFF3
FFF7
000A
0014
FFFD
000D
FFCB
FFD8
FFFB
FFF9
FFE1
0001
002E
0017
FFED
0015
FFFC
0007
0015
0007
FFEC
FFF9
FFD1
0006
FFFE
003E
0008
FFEC
FFFF
0016
0006
FFFE
0004
000A
0006
0005
000D
0009
FFFF
0022
FFDC
0000
0005
FFFA
0000
0014
FFFD
FFF9
FFF1
0002
FFFC
0015
FFD0
0011
0001
0015
0008
0001
0011
FFF7
FFEC
000E
0007
FFFF
0009
0000
FFD2
000F
0004
0011
001E
FFFC
0005
FFFE
FFE7
0009
0007
FFF8
001E
FFF9
FFF4
FFFD
FFFC
0009
0015
FFFA
0001
FFED
0002
0014
0021
0020
0001
0021
FFE6
000B
FFD5
0005
FFE6
FFF9
0030
0007
0006
FFEF
FFDD
000F
0020
FFE8
FFE9
0005
FFF5
FFF7
000E
FFF3
FFFF
FFEA
FFF4
FFED
0010
FFEB
0012
FFF0
0008
000D
FFFA
0002
0004
000B
FFE2
FFFC
FFFE
0002
0003
FFFF
FFFC
FFFC
FFF5
FFE6
0002
FFF5
FFFB
FFFB
FFFE
FFFC
FFFE
FFF7
FFFC
FFFC
FFFB
FFE5
FFFF
FFF8
003A
0002
FFF3
FFF5
FFE4
0004
0000
FFFD
0005
FFF0
FFF4
FFF8
FFF7
FFFD
001F
FFFE
FFFC
FFFD
0027
FFFE
0001
FFFC
FFFB
FFFB
FFFE
FFF1
FFF0
0003
0006
FFFB
0005
FFFF
000C
FFFD
FFF5
FFFD
FFFA
FFFE
FFF6
FFF7
FFFD
FFF9
FFFA
0009
FFFA
FFFF
0017
001A
0005
0006
FFF3
FFFB
FFF4
FFF9
FFFD
FFEB
0011
FFF1
FFF4
000A
FFF8
FFFB
0005
0008
0000
FFEC
000C
FFDF
FFFD
FFFB
0017
0013
000D
0006
FFFF
FFFA
FFFF
0001
FFFA
FFDB
FFF6
0005
FFF6
0006
0012
FFE9
FFFA
0003
0012
FFFA
0001
FFF3
0018
FFF0
FFF9
FFEC
0004
0014
FFFD
0001
0015
0014
FFF7
000C
FFEC
FFF1
0022
FFF4
0004
001B
0005
FFED
FFFF
FFFA
000A
FFF8
0007
0006
000D
0004
FFF8
000B
0025
FFFE
FFF0
0009
FFDD
0017
0003
FFF6
FFE4
FFF4
FFFC
FFF6
FFED
0012
0010
FFED
FFEF
FFED
FFFE
0007
FFFA
FFF4
0007
000D
FFF8
FFF7
0007
001F
FFF9
FFFB
FFFD
FFEA
FFFC
0014
FFF6
0004
0009
FFFE
0000
FFF9
FFFA
001C
FFFA
FFF2
000D
000E
0011
FFEF
000E
FFE8
000D
0003
FFDE
000A
000B
0002
0012
FFFB
FFFD
FFE1
0017
000D
FFED
FFF1
FFF2
0017
0003
FFFE
FFFA
0011
0001
0008
001C
0004
FFFD
0005
0014
FFFA
FFE3
0001
FFF4
FFFF
0005
0012
0007
FFF9
FFF7
FFEF
FFFE
0000
FFE7
FFFE
0000
002B
000B
0018
0000
FFF8
FFF1
FFFF
FFE9
FFF7
0002
FFD9
0003
FFD9
FFF3
000C
FFF7
0017
0022
FFFE
001C
000A
000D
FFFA
0002
0006
000E
000F
0002
FFDB
0005
0003
000C
0001
0005
0012
0003
FFFE
0001
0015
0008
0000
FFFF
0000
0010
FFFC
FFE2
001D
0004
0008
0010
001C
000D
0009
FFFA
0002
FFD0
0007
0005
000C
0025
000B
000C
0007
FFE0
0002
000A
0007
000B
000C
000A
FFFC
0011
000B
0034
0006
0019
0003
0006
0004
000E
0001
0009
FFE4
0003
FFF2
000C
FFF0
FFFE
0016
0015
0004
FFD5
FFF3
FFED
0005
0012
FFD2
0007
0001
0005
FFD4
FFFB
0005
0000
FFD9
FFFE
001B
FFEB
000D
0002
0001
FFE2
0032
FFFD
000C
0009
0008
FFEA
0007
FFF8
0001
000D
FFDF
FFFB
0015
0028
001E
0007
0016
0001
001B
FFFC
FFF1
FFFA
FFFF
0002
000D
FFFE
001B
0008
0003
0017
FFF2
FFFF
FFD5
FFE9
0006
FFDE
0010
FFFC
FFFF
FFFA
FFF9
FFF9
FFFE
0030
000C
0033
FFD7
0007
FFF7
FFE7
000E
FFF8
0011
0027
0000
0006
0014
FFF4
0010
0018
FFF0
0007
FFF8
FFF9
FFED
0007
FFFA
FFF5
FFE2
001B
FFFE
FFFE
FFDE
FFE7
001E
FFFF
0014
FFF6
0011
0014
FFF4
0010
000E
0000
0003
000A
0019
0013
FFD2
FFF2
FFE6
FFFB
0000
FFDA
0011
0003
FFF8
0000
000F
0004
FFFA
FFF6
FFF9
000F
FFFB
FFF1
0009
FFFA
0006
000B
0003
FFF9
FFE9
0019
FFF5
0010
FFE2
FFFD
FFF5
FFF3
FFD9
FFF6
0008
FFF7
0027
FFFC
FFFC
FFF2
0023
FFFF
FFF4
FFF2
000F
FFFA
0007
FFFB
FFFE
FFE0
0005
0001
000A
001C
000E
FFFE
FFFB
0009
FFF3
0000
FFF2
FFFC
0009
0005
000D
0000
000C
FFFF
000B
000E
0003
0008
FFEA
FFF6
0000
FFFB
FFF2
0007
FFE8
FFFC
FFE7
FFE3
FFFF
0030
0003
0026
FFE6
FFFF
0021
0020
0000
FFF5
FFF6
FFF7
FFFD
0013
000A
0004
FFDB
000D
FFDA
FFFE
FFFA
000D
000F
FFF2
0004
FFE8
FFF9
FFE5
FFFA
FFFA
001F
FFE9
0003
FFF6
002F
FFFD
FFD7
0004
FFF2
FFF5
0005
FFFA
FFE1
FFEB
0023
0002
0017
0001
FFDD
FFFB
0011
FFEE
0019
FFFE
0030
0015
000B
001E
000C
FFD0
000B
0011
0006
0029
0002
000A
FFFA
0004
0008
000A
0006
0002
001E
0004
000D
0003
FFD2
000E
0016
0001
000C
001A
0008
0004
0005
FFFB
000E
001A
FFF3
0005
000D
0007
FFFB
0009
FFFE
0007
FFFF
002B
0008
0007
FFFA
FFFA
000D
0005
0027
FFF1
000B
0001
0012
0005
000B
000F
000D
001D
0009
0005
0010
FFBF
0005
000A
FFFC
0002
FFFD
0001
FFFF
FFE5
000F
FFE0
FFFC
FFFA
0002
0005
000E
0026
FFF5
FFF1
0012
000F
FFEB
0009
FFFF
0004
FFF6
FFFE
FFDD
FFFC
0015
FFFD
FFF9
0010
FFFB
0010
0003
FFF2
FFD9
000B
FFF5
FFFE
000A
0012
FFF3
FFF5
FFFD
FFED
FFFB
000A
001A
000E
FFF9
0002
002A
FFE3
0026
0011
000B
FFFA
FFFD
0001
FFD7
FFF8
0013
0005
0016
FFEE
0006
FFE3
FFE2
FFF5
FFFA
FFE8
FFF2
FFEE
0003
FFF3
000B
0007
FFFB
FFFB
FFF7
0000
0001
FFFA
FFF9
FFFA
0000
FFF7
000A
0002
0013
0019
0005
FFF4
FFEE
0006
FFF7
0025
FFFB
FFF1
0002
FFEC
FFFE
FFFC
FFF0
000D
000A
FFE0
FFFE
FFFE
0004
0039
0025
0004
0016
FFFF
FFF5
0013
FFFB
0014
0001
FFD3
0001
FFF5
0004
000F
0004
FFF8
FFFE
0000
003B
FFF1
000D
FFDF
FFE1
FFF5
FFFE
0018
FFDD
FFEC
0004
FFFD
FFF9
FFE7
0011
FFEC
0010
0012
0004
000B
0020
0015
FFEE
FFFB
0009
000A
0005
FFFE
0018
FFEF
0011
0020
0022
FFF2
FFDD
FFF9
FFE7
0001
0006
FFF8
0021
0011
FFFA
0019
0007
0006
0015
0024
FFF2
FFDD
FFF8
0001
0004
FFE8
0006
FFFE
FFFC
FFE2
FFF9
0000
FFFF
0014
FFFE
000B
0008
001E
000F
0026
FFF7
FFED
FFFB
FFF6
000D
FFFC
FFF8
FFF9
0007
FFED
FFF4
FFFD
FFF0
FFF0
FFF5
FFF8
0000
FFF4
FFE6
0009
0002
FFF6
FFF9
0004
0007
FFEF
0000
FFE9
0006
001E
FFFD
FFF9
000A
FFFE
0004
FFF6
0017
FFEE
FFFB
0000
FFFA
FFF3
FFF9
FFF2
FFE9
0018
0006
FFF9
0001
FFEB
FFFA
000A
FFF4
000B
FFFA
FFF9
FFFD
0021
FFFB
FFFD
FFF2
0009
000A
000F
0019
FFFF
FFF7
FFEC
000A
FFF8
0000
000E
0001
FFF8
0000
FFF3
FFE0
FFFA
000F
FFF5
FFFC
FFF0
0006
0005
000D
FFF2
FFF8
FFFA
FFE8
001D
0013
0016
FFEC
FFED
FFF4
000D
FFEB
FFFD
FFFB
FFD8
FFE9
FFD4
0000
0003
0006
001E
001D
0008
FFF7
0003
0001
0006
0006
FFF2
0001
FFE4
0002
0005
0009
0005
000D
0008
0013
FFFC
0018
FFF2
0003
FFDD
0000
001B
FFF0
FFDD
FFF8
FFDB
FFFE
FFFE
FFFD
0027
0001
FFF2
FFF0
000D
0002
0004
FFE2
0006
001D
FFF7
0009
FFF3
000D
FFFD
FFF7
0014
FFFD
001A
000C
FFF4
0017
000C
001E
FFFF
0011
FFED
0000
FFF6
001C
001C
FFE7
FFFA
001F
0011
FFF9
FFF8
FFED
001E
000F
FFFE
FFEF
FFF7
000E
000C
0004
0010
0034
FFD3
0007
0008
FFF8
0004
FFFC
FFE6
000B
0001
0002
FFE1
0008
0005
0008
000D
FFF7
FFFF
FFFF
0005
FFFE
0009
000A
0006
FFD9
0001
FFFB
FFFF
000A
000C
0008
FFFB
0008
000D
FFF7
FFFE
0019
FFFF
FFFE
FFFB
0010
0001
FFF9
0011
000C
FFF5
0005
0003
0008
000E
FFFB
FFF7
000C
0000
FFFA
FFFE
FFF4
FFEC
0013
FFF4
000A
000F
000C
0001
FFED
FFDF
FFF9
0002
0013
FFFF
FFF7
FFFE
FFF7
FFF0
FFE7
FFE6
0002
FFFF
0002
0003
0003
0012
0020
000D
0000
FFE3
0009
0005
0004
0000
FFD5
0000
001D
FFFF
0012
0000
0009
000A
FFFE
FFF8
0008
0002
0007
FFF7
FFED
FFFD
0003
FFF8
0005
FFF2
FFFC
FFEB
0026
000F
0005
FFD5
0013
FFFD
FFFE
FFFF
0014
FFF7
0017
FFEB
0005
FFFC
FFF4
FFDF
FFFD
FFFE
FFF1
FFFE
000B
FFF8
0002
FFF7
FFFC
0011
000C
0007
0003
FFFD
FFFC
0016
FFF1
000D
0023
0008
000C
FFF8
FFED
FFF9
0001
FFCE
0000
FFFF
FFF5
0003
0009
0006
0009
0010
001D
0015
000F
0004
FFC9
0018
FFDF
0003
001D
0015
0003
FFF1
0008
FFEC
FFEC
0008
000F
000A
FFFE
FFFF
001B
FFEB
FFF4
FFFD
FFF5
0003
0015
FFF6
FFF2
FFF6
FFF8
FFFE
FFC5
0006
0009
0016
0002
FFF6
0000
FFFE
0000
FFF9
0018
FFFC
0060
FFFC
FFFC
0008
0003
FFFD
FFFD
FFFF
0003
FFF7
FFFD
FFF6
0001
FFF4
0007
000E
FFFD
FFF1
FFE6
0000
FFFC
0008
FFF3
FFFD
0006
FFFE
FFFB
000A
0004
FFFC
0001
FFBC
FFF9
FFFF
FFFD
0090
0005
FFFD
0009
0001
FFFE
FFFB
0000
0002
FFFB
FF72
FFFB
FFDE
FFFE
000A
FFF9
FFF4
FFFE
FFFB
0073
0003
FFF9
0014
0002
FFEB
FFFB
FFF2
002F
FFFD
0009
FFFB
0003
0007
FFFC
FFFF
0008
000A
0003
FFF1
FFEC
0004
FFF9
0015
000E
FFE1
0000
0017
0020
0002
000A
0010
FFF2
0010
FFFC
0004
000B
FFD6
FFF9
0011
FFF8
0024
000D
FFEE
FFF0
0005
FFF8
0004
0003
FFCE
0003
0005
FFF6
FFFF
0004
0001
FFEA
FFF7
FFFD
FFFF
0004
0003
FFFD
FFFE
0005
0001
FFE9
FFFC
0028
0022
000B
FFDF
FFF1
0027
0004
FFFD
0011
FFF4
FFF0
001F
0027
FFD7
FFE4
0006
000E
FFEE
001B
0000
FFFF
0008
FFCC
0000
0018
0023
0001
FFF3
FFFE
FFF5
0025
001E
0025
0002
0012
FFEA
FFDD
FFFD
FFF8
FFD4
000D
FFF7
000F
FFF5
0018
FFF4
FFF8
FFFE
FFF1
0026
0001
0006
FFF9
0000
0013
0011
FFDE
0004
FFD8
FFFE
0000
FFFC
