000B
000B
0007
000C
000D
FFE3
FFF0
0006
FFED
FFF4
0004
FFF6
FFF2
FFF2
FFF2
FFFC
FFFB
FFE9
0010
FFF7
FFE1
000C
FFFB
0005
FFED
001D
FFEB
0001
000C
FFFD
000C
FFFB
0003
FFFE
0005
FFF6
FFF4
0002
0006
000F
0007
FFFA
FFF3
0001
FFEF
0005
FFF9
FFF3
0003
0008
0008
FFFD
0001
000A
001D
0002
0001
000D
0002
FFFA
FFF6
0000
FFF4
0011
0025
FFF7
0004
FFEA
FFF3
0007
000F
0004
FFF7
0011
FFED
FFFE
FFE0
0000
0006
0002
FFE7
FFEA
FFF8
FFE4
FFEF
0000
FFF5
FFF7
FFF9
FFF9
FFFD
FFF7
FFF1
0001
0006
000D
FFEB
FFF9
FFED
0002
FFF8
FFFE
0018
0005
0001
FFF2
FFF0
FFFA
FFF5
FFF5
0006
FFFA
FFF7
0009
FFF0
000B
0002
0005
FFFF
FFF4
FFFC
000A
0005
FFF3
0003
0002
FFFE
001A
FFFC
FFED
FFFA
FFFB
FFED
0022
0005
0001
0005
0008
001C
0006
FFEB
FFF9
0008
FFE5
0013
FFFB
000F
0004
FFFC
FFFA
FFE9
0000
FFF4
FFED
FFF0
0005
FFF9
FFF0
FFFB
FFED
FFFA
0006
FFFE
0007
FFFD
FFEE
000E
FFF7
0011
FFE5
FFEC
FFF5
0001
FFFF
0001
FFF9
0002
FFF4
0002
0006
FFE8
FFFE
FFF4
FFF4
FFFF
0004
0002
0003
FFF9
000F
FFEA
FFF9
0002
FFF7
FFF8
0011
FFFD
FFF0
0002
FFF4
FFFD
FFFB
000A
000E
FFEE
0003
000C
FFE9
0000
FFF4
FFEF
0007
0000
0004
FFF3
FFE0
FFF2
FFE6
0008
000B
FFF8
FFFF
0002
FFFD
0001
0012
0017
FFFB
0001
FFFD
0000
FFF3
0001
FFF8
FFFE
0007
FFEC
0002
0007
FFFE
FFF8
FFFD
FFF9
0019
FFEA
000E
FFFC
FFE9
FFFE
0015
FFF9
FFFA
FFFD
FFF1
0004
FFF9
0014
FFF4
FFFC
FFFA
FFF8
0006
FFFF
0008
0006
FFE8
0007
FFF7
FFF9
FFF6
000B
FFFC
0000
0007
FFFA
000B
FFF6
0006
0009
0010
FFF4
FFFB
FFFB
0002
FFFD
0006
FFFE
FFF4
0008
0005
000E
FFFF
FFFD
000F
0005
FFE9
000A
FFFC
0005
0000
FFFC
0002
FFEE
FFF8
FFFF
FFF0
FFF2
0006
FFEF
0007
0007
FFF7
FFFE
FFEF
FFF3
0008
FFFD
0003
FFEA
FFFE
FFFC
FFFE
FFF3
0014
FFFC
FFF5
0011
FFF9
0001
FFF6
000F
FFF9
FFEF
FFF7
FFFE
FFFF
FFFD
FFFD
FFF4
0001
0005
FFFD
0011
0000
000D
0003
FFF3
000A
FFFC
FFF0
0008
0006
0000
0006
FFEF
0004
0005
FFFF
0007
FFF4
FFF6
FFF1
FFFE
0004
0010
0006
FFF1
0010
0000
FFFB
FFFF
001D
0009
0003
001C
FFEA
0004
FFFD
FFFD
0009
0005
FFF3
0004
FFFF
FFFE
0001
FFED
0008
FFED
0008
FFFE
0006
FFF8
0007
FFF9
FFFF
FFEB
0009
FFF9
FFEA
0005
0003
0007
000C
0004
0003
0001
FFF8
0005
FFF0
FFEB
FFFC
0009
FFFE
0002
0006
FFFD
FFF7
FFFA
0003
0006
FFF6
000A
FFFE
0016
FFF6
0007
FFFB
0002
FFFA
FFEE
0009
FFE6
FFF8
FFF0
FFFA
0009
FFFE
FFEC
0008
FFFA
FFF8
FFFE
FFF8
0011
FFF4
0008
FFFA
FFF8
FFFF
0002
FFFE
FFFB
FFFB
0011
0003
0020
000F
FFFF
FFF4
0008
000B
0008
FFFC
0001
FFFF
0008
0006
FFFA
FFFD
0013
0007
0001
0003
0017
FFFF
0001
0008
FFFA
000C
0014
FFF1
0007
000C
0004
FFF2
FFF4
0000
0006
FFFC
0002
0003
0009
FFF9
FFFB
0001
FFF3
0000
0007
FFEE
0000
0001
000E
FFFB
000A
0001
FFFE
FFFA
000B
FFF7
FFF3
0001
FFF7
FFFA
FFF4
0004
0000
FFF8
0008
001B
0000
FFF9
FFFE
FFFB
FFF6
0000
FFFD
0000
FFEA
0009
FFF8
FFFB
0005
000F
FFFB
000E
FFFA
FFFC
000B
0005
0007
000E
0008
FFFD
FFF8
FFFB
0000
0000
FFE9
000D
FFFE
0006
0006
FFFC
000C
0013
FFEC
FFEB
0002
0001
FFF3
FFF7
0001
000D
FFEE
FFFD
FFFA
FFFA
0004
0002
FFF6
0009
FFF8
FFE5
FFFA
0005
FFF9
FFF2
FFF0
FFFD
0001
FFF3
FFFA
0004
0005
000B
FFE5
000C
0004
0003
FFFF
000F
000E
FFE0
FFF3
FFE1
FFF3
0004
FFF3
FFFB
0014
FFEF
0001
0000
FFF4
0002
000E
FFFE
000A
FFFE
0008
FFFB
FFFF
0009
FFFA
FFF8
0002
FFFE
0000
FFFD
FFFF
FFEB
0001
FFFC
FFED
FFFC
0011
0001
FFF6
000B
000E
FFF9
FFEF
FFFB
FFFF
000F
FFF8
FFFB
FFFC
000C
FFFF
000B
FFFE
FFE4
0000
FFE3
0015
0002
0002
FFFB
FFF3
FFF1
FFED
FFF6
FFE2
FFEE
0001
FFFD
0003
FFF8
FFDF
0015
0001
FFFA
0003
FFF2
0007
0010
0008
0004
0006
000F
FFF3
FFEC
FFEF
FFED
FFEC
FFF2
0002
0005
FFE4
FFF8
FFEA
FFEC
000B
0002
0019
0001
FFFD
0028
FFFA
000A
0007
FFFF
0004
0012
0005
FFFB
0001
0023
FFFD
FFF8
000E
FFF4
0004
000E
FFFA
FFFC
FFF7
FFF3
0005
FFF4
0004
FFFD
FFDC
0000
0006
FFFC
FFFC
FFFB
0017
0009
FFF8
FFF1
0007
0000
0000
0003
0003
FFF7
0011
FFFE
0004
0005
FFEF
FFF6
000B
0002
0001
0013
0005
000B
0009
FFFE
FFF2
0001
FFFD
FFF5
FFEF
FFF9
000A
FFF8
0007
FFF4
FFF8
0003
000F
000B
001D
0007
0008
0007
FFFA
0007
0018
0001
0003
0006
FFF3
FFFA
000F
0013
0003
000A
FFEF
FFF3
0002
FFFB
0008
0011
FFF3
FFFF
000B
FFED
0008
0006
FFFD
0008
0004
0012
FFFF
FFFC
FFEC
000D
FFFB
0002
000E
FFFC
000B
000F
FFEC
0015
FFF2
0003
FFF8
FFF4
FFF9
0002
FFFB
0005
FFE9
0009
000D
FFFC
FFFA
FFF9
FFF9
FFF6
FFF2
FFF4
FFFD
0009
0014
0008
FFF8
FFE8
0001
FFF8
FFE6
FFE9
000E
FFEE
FFDA
0008
000B
000A
000C
0016
0016
FFFF
FFF1
0008
FFFF
0006
FFED
0003
0008
FFE8
000E
001B
0013
0014
000B
FFF8
FFF9
FFF7
0000
0009
FFFD
FFF8
0011
0004
FFEB
000B
FFF2
FFFA
FFF6
0013
0005
FFE5
FFFE
FFFE
0000
0009
FFF9
FFF7
0017
0006
FFFD
FFFE
FFF0
0005
FFFC
FFF9
FFF2
FFFC
0003
FFFB
000F
FFF8
001F
FFF8
FFF4
FFFC
FFF9
000C
FFFA
FFFF
FFFC
0016
000C
FFFA
FFFC
FFF2
000B
0007
000B
0000
0013
FFF4
000C
0005
FFF5
FFFC
FFF1
FFF6
FFF6
000D
0005
FFEF
FFFE
0012
FFFE
FFF7
0008
FFFE
FFFC
000B
FFF4
FFED
FFFB
0008
000A
FFF6
FFF6
FFEB
000A
000A
0000
FFFF
FFDC
FFF8
FFFC
FFF9
0015
0003
001B
000F
0007
0016
FFEC
0003
000B
0012
FFF5
0001
FFF7
FFFF
0015
0007
0006
0017
0004
000F
000A
0010
FFF5
0005
FFF3
000D
FFF2
000B
FFFF
FFFD
FFF7
FFF8
0007
FFEC
0000
FFF8
0002
0002
FFF9
FFF8
FFFF
FFFF
0004
FFF2
FFFA
FFF1
FFFE
001B
FFF7
0012
0007
FFF4
FFFA
0001
000F
0002
FFF7
FFFB
FFF5
0002
001A
0006
0007
FFFC
000A
0002
FFFC
000A
FFF7
0010
FFFC
0008
000A
0007
0001
0002
FFF3
FFF8
FFFF
FFF6
FFF9
0012
FFF4
FFF4
FFFE
FFFA
0008
0010
0004
0000
0016
0006
FFF9
FFFB
0005
0007
0008
FFF2
0009
0012
000E
FFFD
FFF2
001E
0001
FFF8
0009
FFFD
FFFF
0011
0007
001E
0000
0012
0001
FFEB
0003
0001
FFF9
0017
FFFE
FFFD
0011
FFFD
0004
FFF3
FFF1
FFFE
FFF6
FFF6
0001
0004
0002
FFEE
0003
0002
FFEF
0001
FFFA
0009
0007
FFF4
0001
FFED
FFFC
FFFA
000D
0018
0007
000A
001C
FFFF
FFFC
FFF0
000C
000C
FFF6
FFFF
FFF9
0003
FFFE
000A
0004
0004
FFFB
0001
FFFE
000D
FFFA
0011
0000
000A
FFFD
FFFF
0006
FFEB
000D
0001
FFF4
0001
FFFA
FFF1
0014
FFE3
FFFB
0002
FFF8
FFFE
0004
0003
0006
0002
FFF6
0000
FFEE
0009
FFE6
FFF4
000A
FFF6
FFF6
FFEA
FFF8
FFEC
0011
FFFF
FFFA
0007
000C
FFFB
0000
FFF4
000E
0021
FFFF
FFFD
0008
FFFF
FFF3
000B
0009
0002
0009
0008
FFF5
0007
FFE5
FFF8
0003
FFF9
0011
0001
0000
000B
0002
FFF0
0017
FFFF
0002
FFF6
FFFE
0010
0004
FFE8
FFFD
FFFB
FFE7
000A
FFED
FFFE
0011
0007
FFFD
FFF7
0002
0007
FFF1
0004
0005
000E
FFE2
FFFF
FFFB
0006
FFFF
FFE8
0003
FFF3
0004
0005
FFFB
FFF9
0001
0001
FFFD
0002
FFF5
FFFE
0011
000C
0000
FFFE
FFEC
FFF2
000C
000C
000B
FFF7
FFF3
0001
0012
0008
0004
000D
0013
000A
FFF2
0006
FFFA
0027
000F
0006
0002
0001
0009
0004
FFF3
FFFA
0002
0017
001C
0006
FFEB
FFFD
FFFC
FFEC
000F
000C
FFFA
0016
0005
0002
000A
000C
0000
000B
0008
FFFD
FFF1
FFF7
FFF8
0010
FFF6
FFFB
FFFB
0007
0002
0007
FFF3
FFEC
FFFC
FFFE
0011
FFF4
0002
FFEB
000D
FFED
FFF6
FFFC
FFFA
0002
FFFB
0002
0000
FFFA
0000
FFFE
0003
FFEB
FFF1
FFF9
0008
0010
0004
FFF3
000B
0007
0001
001E
FFFA
FFFE
FFF2
001B
0006
0009
FFFD
FFF9
FFFE
FFF6
FFF4
0006
0001
0000
0000
FFF8
0016
FFFA
0015
0001
0010
FFEC
FFF6
0001
FFF1
0006
0002
FFFC
FFF2
0019
FFE8
000E
FFF4
000E
FFFD
0007
FFF6
FFF1
FFF4
FFE8
0002
0007
FFF9
FFFF
000C
0004
FFFD
FFE8
FFF3
FFF6
FFFD
0004
FFFB
0004
FFFD
FFFA
FFFC
FFF0
001B
0004
FFEA
FFE8
FFF3
FFF0
0005
0019
0008
0005
0003
FFFA
FFFB
0014
000E
FFF5
FFF4
FFFD
0008
FFFA
FFF9
000B
FFFB
FFE8
0003
FFFB
FFFE
0006
0004
000D
0010
000C
0002
FFFA
0007
0002
FFFA
0004
0004
0003
001D
FFFA
FFFD
FFF9
0007
FFFA
FFFB
FFFC
FFE8
0004
FFED
FFEC
FFF6
0004
0010
0001
0005
FFF8
000D
FFFF
0001
FFFE
000A
FFF4
0014
000E
0010
FFF1
FFF0
FFF3
FFEC
0002
0000
FFF5
0004
FFF6
0000
FFFD
000D
0001
FFF7
0017
FFF1
000F
FFF3
FFF1
FFFD
0000
0009
FFDA
FFF1
FFEC
FFF4
0006
FFF9
0002
FFFA
000B
FFF4
FFF2
0008
FFEB
FFFB
FFF1
FFFA
FFFA
FFFE
FFF3
0006
FFF9
0000
FFFE
000D
0002
FFF8
0002
FFFA
0001
0019
FFF9
FFF9
FFF7
000C
FFFE
000B
000C
FFF7
FFFE
FFF4
FFFD
000B
0000
000E
0016
0009
0008
FFFA
FFEE
FFF3
000C
0009
FFF4
FFF8
0010
0005
000A
FFFC
0015
0005
000F
FFF7
FFF8
0001
0008
FFED
FFF3
FFF4
FFF1
FFF4
0019
FFFF
FFF1
0003
FFF3
000F
0005
0009
0009
0008
0004
0008
000D
0000
0026
0000
0008
FFF8
0015
0003
0008
FFFF
0005
0007
FFF3
0001
FFFC
FFFF
FFFC
0019
000B
0015
0001
0004
FFFD
0003
FFEA
FFFD
000D
001D
FFFD
FFFE
0003
FFFD
000F
FFF8
0009
0000
FFFD
FFF9
000B
001F
FFF3
0008
FFFC
0004
FFFD
FFEC
FFFE
FFEE
FFFD
0003
0005
0003
FFFD
000A
0019
FFFC
000E
FFF7
0005
000B
0004
0008
0008
FFF9
FFFA
001F
FFFB
0001
0004
003E
FFFA
0000
0004
000D
FFFE
FFFE
FFFD
0002
000C
001B
000C
FFF8
0014
FFD7
FFFC
0002
0001
FFFB
0002
0006
0018
0006
FFFD
FFFD
FFFF
0006
0014
000E
000A
0004
0009
FFFE
0000
FFE4
0008
0002
0003
FFFB
0000
FFFD
FFFE
000B
FFF7
0001
0000
FFF0
FFFD
FFF6
0001
0000
FFFF
0007
FFFE
0002
FFF3
0009
0000
0000
FFF8
FFF6
000A
0001
0008
FFFE
FFFD
FFFF
0000
FFFA
0003
0000
FFFC
0002
FFFA
0001
0003
0006
0011
000A
FFFB
0007
0004
FFFC
0004
FFFD
0001
000D
FFFD
0000
000F
FFFB
0002
0007
FFFE
0000
0002
FFFD
000A
0007
0001
FFFA
FFFC
0007
FFFC
0000
0000
002E
0004
0010
FFFA
FFFF
0001
FFF9
FFFA
FFFE
0001
FFF1
FFFA
0002
FFFC
000C
FFFF
0004
FFF7
0002
0003
0001
FFFF
0001
0023
FFFD
001A
FFFD
0005
FFFF
0008
FFFE
0009
0001
0000
FFFE
FFFF
0000
0000
0001
FFFB
FFFE
0002
FFFD
FFFA
FFFE
FFFD
000E
FFFE
0003
FFFD
FFFD
0004
FFFB
0000
0007
FFFD
0004
FFFD
FFFF
000A
FFFB
FFF9
0001
0005
0011
0004
0003
0000
0008
FFFD
FFFD
000A
FFDD
FFFE
FFFA
FFFD
0008
FFF2
000C
000C
FFF7
FFFD
FFF2
FFF6
FFFE
FFF6
0017
FFFD
0000
FFE0
FFFD
000C
000B
FFF2
FFF1
FFF4
0000
FFED
FFFE
0007
FFF5
0005
FFE7
FFF8
0002
0007
0004
0015
0001
0004
FFFD
FFF6
FFEA
FFF4
0017
0007
FFF9
FFFE
0005
FFF8
FFFA
0002
FFFA
FFFD
0013
0005
FFFD
0008
0003
FFFD
FFFF
FFE9
FFFB
FFFA
0012
FFEE
000B
FFF8
FFFC
0006
0001
0010
000A
0009
0004
FFF8
0002
FFF9
FFF7
FFFD
FFEB
FFFD
FFFA
FFFC
0001
FFFC
FFF5
FFF8
FFF9
FFF6
FFFC
0009
000F
FFFC
FFF8
0005
0000
FFFE
0010
FFF4
FFF6
0001
0013
FFF6
FFF5
000F
0008
001A
0001
0004
FFFA
FFFE
FFF3
0000
000B
FFFB
FFE9
FFF3
0003
0003
FFFE
0001
000A
0003
0007
0002
FFFA
0003
0010
0016
0001
FFFB
0004
FFFD
FFFA
FFF8
0010
0005
FFFF
0016
0007
FFF6
FFFC
0003
0005
FFFB
FFF8
0007
FFFC
FFFA
FFFB
FFFD
0016
FFF9
000C
0016
0006
FFFA
FFE8
0010
FFFD
FFF2
000D
0019
0002
FFE4
0004
0004
FFFC
FFFB
0011
0007
000B
FFF2
FFF7
000A
0000
FFF8
0003
FFFA
FFE2
FFF0
0002
0004
FFF4
001B
FFF5
FFE6
FFF6
0000
0009
0006
0004
0005
FFFE
FFFB
FFFB
FFEC
0008
FFF9
FFFE
0009
0008
0000
0010
FFF9
FFFE
FFFE
000D
FFF4
0002
FFFF
FFF7
FFFE
0004
FFFB
0009
FFFA
000A
000B
0017
000B
0004
000E
0011
FFF7
FFE7
0010
0007
FFFF
FFF3
FFF6
FFFE
0005
000B
0001
FFFE
0013
0002
FFEF
0011
FFEC
0002
FFF4
FFF1
000E
0001
000D
0002
0014
0008
000B
0013
000D
FFFF
0001
FFFD
FFFC
FFFE
000A
0004
FFFC
0004
0004
0004
0006
0003
0000
0003
001B
0006
0000
FFFF
0005
0005
FFFC
0005
0003
0008
0006
0004
0006
0007
0000
0028
0006
FFFF
0000
0006
0002
0006
000A
FFFF
FFFF
0003
0006
0005
0003
0009
0005
0005
0007
0006
0000
0005
0001
000D
0006
0008
0000
0003
0003
0000
0008
FFFF
0003
FFFD
0006
0008
0004
FFFB
0002
0005
0008
FFF5
FFFF
000D
0001
0002
0003
0004
000B
000A
0002
FFFF
0002
0029
000B
0006
0007
0000
0000
0007
0003
0000
0006
FFFF
0006
FFFF
FFFF
0007
0002
0004
0006
0001
0001
0001
0005
FFFF
0011
0004
0006
0002
0005
0006
0000
0002
FFFF
0004
0001
0005
000F
FFFE
0009
0006
0009
0000
0004
000A
0010
0002
FFF9
0009
FFFC
000C
FFFD
0005
0006
0006
0003
FFFF
000C
0003
0000
0007
0009
0006
000E
000B
000B
0008
000B
FFFE
0002
FFFF
0008
0007
0004
0002
0008
0003
FFFD
0002
000C
0007
0003
0009
0001
FFFF
0003
0003
0002
0001
0003
0006
001A
0007
0007
0003
FFFF
0007
0004
FFF9
0005
0002
0004
FFFF
FFF9
0005
0001
FFFC
FFFD
0027
0004
000A
0001
0002
0003
0005
0000
0000
0004
0006
0001
FFFF
0009
0006
0005
0003
0006
0008
0005
0002
0004
0002
0002
0005
0023
0008
0002
0007
0004
0006
0003
0005
0005
0003
FFFF
0004
0003
0006
0007
0000
0003
0005
FFE9
0009
0004
0004
0000
0002
0004
0003
0001
FFFE
0006
FFFF
000C
0010
0005
0004
0007
0006
0005
0005
0012
0001
0006
0000
0003
0003
FFFE
0001
0008
0003
0000
0000
FFFB
000B
0002
0009
0007
FFF6
0010
000C
FFF6
0003
0010
FFFB
FFFD
FFF9
001E
FFF2
FFF6
FFFA
0015
000A
FFF5
FFF3
0014
0000
FFF9
FFFB
0000
000A
0012
FFF9
FFF1
FFF5
FFFF
0002
0014
FFFE
0005
0000
FFD4
FFF7
0003
FFE2
FFFC
FFF3
FFFA
000C
0000
0005
FFFE
FFFD
0005
FFFF
0010
FFF8
0009
000F
FFF7
0003
FFF9
FFE1
FFFD
FFFE
FFF9
FFDD
FFF0
FFFA
FFEF
FFEF
FFF9
FFFC
0002
0006
000A
0002
FFFD
FFF3
0007
FFF6
000F
000B
FFFF
FFFE
FFF6
0001
0003
0007
FFF5
0002
FFF8
FFFC
FFF7
0007
FFFF
0009
FFFC
0001
FFF7
0000
0006
0001
0001
FFE3
0002
000A
0005
0006
0003
FFFD
FFEF
0001
FFFA
0009
FFF1
FFFF
FFFF
0010
0000
0004
000D
001E
FFFC
000D
FFF0
FFFA
FFFC
0011
FFF7
0004
0005
FFFF
0008
0002
FFE6
FFE5
000D
0009
FFFD
000D
FFFF
001A
FFF3
0009
FFF1
FFFF
0009
0010
FFFB
FFFA
0006
FFE9
0004
0001
FFF3
0007
FFFB
0007
FFF8
FFFA
FFF1
0000
0005
FFFB
0008
0003
FFFE
0004
FFDA
FFF1
FFFE
000C
0000
000F
000D
000E
FFFE
FFF5
001B
0014
0012
FFE8
FFFD
FFFF
FFF1
FFFF
FFF6
000F
000B
0005
0010
0001
FFF7
000F
FFF7
0013
000C
000F
FFFD
0005
FFFF
FFF8
0006
0001
0003
FFF1
FFF9
FFF3
FFFF
FFF5
0003
0007
FFFF
0013
FFF5
FFEE
000F
0002
0001
FFF0
000E
0003
0009
0008
0018
FFF1
FFFF
FFF0
0000
FFFC
0013
FFEA
FFEB
0009
FFF8
FFFD
0008
000A
FFFF
FFF5
FFFA
FFDF
000A
FFFD
FFFC
0001
FFF9
0003
0004
0002
000E
000D
FFFD
0000
FFFD
FFFC
FFFD
FFF3
0012
FFFA
0014
0001
FFFF
000D
000F
FFFB
FFFA
001F
000B
000A
000B
0000
FFEE
FFFE
FFFA
FFF9
FFF7
0008
FFF3
FFF6
FFEF
0000
FFFF
000D
FFFC
0000
0013
FFFD
000A
FFFE
0001
FFF2
FFF9
FFFD
0004
FFFF
FFEF
FFEC
0006
FFF1
FFFF
FFFC
0002
0009
000A
FFFD
0004
0004
0006
000C
0011
FFE9
FFFC
FFFB
002D
000A
0006
0007
FFF7
FFFF
FFF6
0004
001F
FFF9
0002
FFF6
001D
0005
FFFB
0003
FFF8
FFF5
0001
0014
0004
FFF9
000C
FFFD
FFFB
FFF8
FFFE
000B
0004
000B
FFF3
0001
FFFB
0008
0019
FFF8
0003
FFEA
FFFC
0016
0003
FFF8
FFFB
FFFC
FFF7
0002
FFF5
FFF8
FFE9
0004
000E
001B
0014
FFF8
0006
0002
FFF9
000B
FFF1
001E
0018
FFFE
FFF3
0001
FFE7
0004
000A
FFEB
FFFE
FFFB
0003
FFF4
0007
0019
000D
FFF8
0006
0005
FFF7
FFF9
0006
0000
0000
0011
FFFE
0000
0010
0008
000D
FFF4
FFF8
FFEE
000D
FFFD
000B
000C
0000
FFF8
000F
0003
0014
FFFE
0007
0004
FFFB
FFF8
0012
000A
000C
FFEC
FFF5
002C
000F
FFED
FFFE
000E
FFFF
0014
000A
0005
FFE7
0011
FFFF
FFEF
FFFC
000E
FFFD
0006
0012
000E
0001
0002
0001
0006
0003
0000
0017
FFFC
FFF3
0008
000B
FFFE
FFFC
FFF8
001E
0004
0000
FFF3
FFFC
FFFA
000D
000C
000F
FFFF
0013
FFFC
FFF3
0007
FFF1
0026
FFF6
0003
0020
FFFC
FFFE
FFF8
0005
FFEF
FFF3
0006
0002
0007
FFF6
FFDC
0001
0019
FFF7
0005
0008
0003
0004
FFFE
FFFD
0010
0001
FFF8
FFFD
FFF7
0005
000B
0007
FFF0
0000
FFF4
FFF3
0008
0009
0011
0009
FFFF
FFF1
FFEF
FFE8
FFF3
FFFA
000F
0009
FFF4
FFF7
FFFA
0003
FFF3
FFFE
0004
FFEB
FFE5
FFFF
FFF6
0006
0003
FFFA
FFEA
0000
FFF7
FFED
000F
FFF7
0012
0006
FFFB
FFFD
FFFC
FFF1
FFFF
FFF9
0000
FFFD
0014
0007
000F
0005
0005
FFF8
FFF7
000E
FFF3
FFFC
FFFD
FFFF
FFF6
FFF1
FFEF
FFF7
0010
FFF8
FFFD
FFFD
0006
0001
FFED
0002
FFF9
FFFC
FFF7
000D
FFFA
000E
0004
000F
FFF2
0000
FFFD
0003
0004
FFFB
FFE8
FFF8
0006
000C
0015
FFF8
000D
FFF7
FFFE
FFF3
0016
0001
FFF9
000A
FFFF
FFF9
0008
0002
FFF8
FFF3
FFFE
0007
001B
0014
0009
000F
000C
FFE4
FFF2
0001
FFFA
FFFA
FFFF
FFF0
FFF9
FFFC
FFF0
0003
0005
0000
0000
FFEA
FFF8
000D
FFF2
FFF2
FFEE
FFF1
001A
FFF2
FFF8
000E
FFFA
FFF7
000B
FFFA
000F
FFE9
0002
FFF5
FFEE
FFFE
FFFF
FFE4
0015
FFEA
0014
000E
FFF2
FFFE
0004
FFFD
0006
0006
001A
FFF8
0006
000B
0004
FFF3
FFE7
FFF5
FFFA
0003
FFFD
0003
0001
FFF6
0003
0001
0009
FFFA
FFFB
0000
0002
FFF3
FFF2
0007
0005
0003
0020
0009
0010
FFE9
FFFE
0002
FFFB
0000
FFFA
000C
0013
0005
0003
FFFD
FFF1
FFF9
0003
FFEE
0007
FFED
001D
FFEE
FFFC
FFFC
FFEE
0005
0015
FFEE
0016
000E
FFF6
FFF4
0002
FFFA
0008
0008
FFEE
0002
0011
FFED
0006
FFFF
FFFB
0003
FFF9
FFF6
FFEF
000E
000E
FFFD
0016
000F
FFFA
0011
FFF7
FFF6
FFEE
FFEF
0006
0008
FFF2
0004
FFFE
0012
0007
FFF1
0003
0009
0007
FFF9
0007
0006
0011
FFFD
FFFB
FFED
FFF2
FFF7
FFFB
FFF8
0000
FFF7
FFFD
FFF8
FFF9
FFF8
FFFD
001F
0001
000C
0004
0015
FFE4
0002
0008
0010
0018
0004
0007
FFEB
FFFB
0003
0003
000D
FFFA
FFFF
0005
FFF9
FFFE
000E
FFFA
000A
FFF9
FFE8
FFFD
0001
FFFF
FFFB
0012
0002
000F
0007
0002
FFE9
0000
FFFE
FFF3
0003
FFFC
FFF6
FFF0
0006
FFFF
0004
0008
0003
FFF4
FFF6
0013
0003
FFF4
FFFD
FFFE
FFF1
0016
FFF1
000D
0018
FFF4
FFF5
FFF8
FFF8
FFF9
0002
0011
0002
FFFA
0007
0007
FFF7
0005
0001
000C
0013
FFF3
FFF7
FFFC
000C
0009
0006
0002
000D
0007
0003
FFF3
FFFE
FFF5
FFFE
0002
0004
FFFB
FFF3
0009
0015
0004
FFFF
000A
FFFD
FFF7
FFF8
0007
FFFE
0015
0005
FFF7
0000
0021
000A
FFF7
FFFF
FFFE
FFFE
FFEE
FFF9
0002
FFF8
FFEC
FFFA
0006
0003
FFF8
FFF8
FFF8
FFE8
0003
FFFA
FFF2
0003
FFFA
0000
0012
0007
FFFE
FFF4
0016
FFF6
0008
0014
FFF5
FFE7
0004
FFF8
0002
0011
FFF6
0004
FFF6
FFEA
000C
0018
FFFC
FFEE
FFFB
0008
0009
FFF7
000A
0010
FFDB
000E
0000
FFFC
FFFC
0001
FFEB
000E
0007
0023
FFEC
FFF8
FFF4
000F
FFF9
FFFE
0010
FFFF
FFFC
FFF6
FFFC
0009
000A
0019
FFE9
0006
0019
0001
FFF8
0009
000E
FFFE
FFF9
FFEB
FFED
0005
000B
FFF1
0006
FFEE
FFF3
FFF6
FFF0
0007
FFFD
0007
000C
FFFC
FFF4
FFFD
0006
001D
FFFE
FFF7
0008
FFFC
001B
0003
FFFE
FFDC
0006
0004
FFE2
FFFC
0009
0006
FFFA
0005
000F
FFF0
FFF3
FFEB
000A
0001
0001
0003
FFFD
0005
0000
0002
FFF5
FFF3
FFF5
FFFF
FFED
FFFB
0003
0001
0002
0007
0005
0004
000A
0002
0009
FFE3
0005
FFED
0013
0008
0006
FFFA
FFFE
0006
FFF8
0002
0001
FFF5
FFFF
FFF9
FFFE
000E
FFF2
FFDD
0016
0002
FFF1
0000
FFE4
000A
0005
0002
FFFF
0010
FFF8
000D
FFFE
FFE3
FFFF
FFFC
FFFA
FFEE
FFE8
0004
FFEC
FFFB
FFF4
0008
FFFF
FFF1
FFF7
0008
0004
0003
0008
0012
0002
FFF8
FFFB
FFE5
FFF8
001E
0013
0012
0005
000E
FFE0
FFFB
0000
0008
FFF5
000A
0010
0001
FFF5
0004
FFFC
FFFC
FFF3
FFF7
FFF5
FFFE
0008
FFFA
0002
0002
000A
0001
FFFC
FFF6
FFEF
FFFA
FFF9
0006
0008
FFF5
FFE2
0010
FFFC
FFE6
FFED
0009
FFFF
FFFF
0000
FFFE
FFFB
000B
0007
0001
0004
000C
FFF5
0006
FFE4
0004
FFE3
FFF5
FFFB
0001
FFEA
FFF1
FFFC
0001
FFFF
FFF0
0011
FFFF
0018
FFFB
FFF9
000E
0009
0000
FFF4
0007
0002
FFF0
000B
FFF5
001C
000D
FFFC
FFFE
000D
FFF8
0006
FFFE
0002
001C
0001
0001
000A
0003
FFE7
0012
FFFB
0007
FFF5
0013
0000
0009
FFF8
FFFE
0006
FFFF
000D
FFFC
FFF0
FFF7
000E
0008
0003
FFFD
FFF8
0003
FFF3
FFE4
0016
0004
FFF2
000D
FFFE
0002
FFFD
0005
FFFD
FFF6
FFF7
0006
FFF7
FFFC
FFEE
0008
FFFC
FFFE
000C
000A
FFFA
0001
FFFA
0005
0000
FFF4
FFFE
FFFD
FFED
FFEB
0009
0008
000B
FFED
FFFF
0006
0010
FFF3
FFFA
FFFC
0004
FFF8
0003
FFF4
000C
0004
FFF0
FFEA
000F
000E
0025
0009
FFF8
000E
FFFC
0009
FFEC
FFFE
FFFB
FFFC
0005
FFFA
FFFC
FFFB
FFF1
0000
0009
FFF0
FFEE
000A
0004
FFF2
FFE8
FFFB
FFFC
FFFA
0005
FFFB
0009
0005
0004
FFE7
0007
FFFB
FFFA
FFF2
FFF7
0006
FFF5
FFFC
FFFC
000F
0000
FFEE
0002
0006
FFF6
FFFD
FFFC
FFF9
FFEA
FFF5
0003
0004
0006
FFF8
FFF3
FFCB
0008
FFEC
FFFE
FFFA
000B
0009
FFF9
0005
FFF6
FFF5
FFF7
FFFE
FFFD
0006
FFFF
0000
0007
0005
FFF0
FFFB
FFF3
FFFB
0004
FFF1
0005
000E
FFF9
0003
FFEF
FFFB
0008
FFFE
0062
FFF1
FFF5
000A
0007
FFFB
FFFA
001B
FFFC
FFEF
FFE9
0008
000A
FFF9
FFF0
0009
0004
0011
FFE9
0003
FFF6
FFF6
FFE5
0019
0001
0014
FFFD
FFFD
0006
FFF5
0013
FFEF
FFEF
FFF7
0017
FFBC
FFFC
0005
FFE4
001F
0000
0006
000E
000A
0006
0012
FFFA
FFD6
0001
FFE4
0006
FFF1
FFFF
0000
0004
FFE7
FFFB
FFFE
0004
000E
0013
0012
0009
FFFA
0000
0007
FFED
FFE5
0019
FFF4
FFF7
0005
FFFB
FFBF
FFEC
0007
0002
FFFB
FFEE
0005
FFFF
FFDA
0009
FFFA
FFEA
0004
FFFF
FFFD
FFF3
FFF3
FFEB
0004
0005
0017
FFFC
FFF5
FFFA
0003
FFF1
FFF9
0000
FFEB
FFEF
FFFC
000D
0007
FFFD
FFF6
FFDF
000A
FFE7
000A
0004
FFF5
FFFB
FFF9
FFF5
FFFD
0001
FFFA
000E
000F
FFF5
FFE7
0006
FFFF
0007
FFF9
FFFB
FFFE
0003
000E
FFF0
FFEC
001A
0004
FFE6
FFFF
FFE9
FFF8
0000
0010
000E
FFDB
0020
FFEB
0014
FFF1
0004
FFFB
0006
FFFD
0006
000D
0005
FFFB
FFFD
0000
000C
FFFD
0002
0003
FFF5
0002
FFF2
000B
0003
000B
0007
FFF7
0000
FFF4
FFFC
FFFC
000A
FFFA
FFF8
FFFC
0006
FFFE
000A
FFCD
FFFC
FFFF
FFF0
FFF7
0000
FFFF
0003
FFFD
FFFD
000C
FFF9
FFF0
000E
000F
FFF8
0005
0006
0010
0005
0001
FFDF
0002
FFEB
0001
FFF7
0003
FFF6
FFFF
FFFE
0006
FFDD
001B
FFFC
0005
FFF1
0008
0001
FFFC
FFF9
000A
000A
0000
FFFE
FFFC
0004
0000
0003
0011
FFED
FFF5
0002
0000
000C
0001
FFF3
000E
0010
FFFF
0002
FFFD
0008
FFFE
0012
FFFE
0004
FFF0
FFFC
000E
FFF3
0008
FFEF
0033
FFFE
FFF2
FFD1
0008
FFFD
FFFF
FFFE
0002
FFE2
000A
0002
0001
0007
FFFC
FFEE
FFFE
FFFE
0002
0007
FFF8
000A
FFF8
0012
0004
000E
FFFB
FFED
FFFA
FFFB
FFFC
001D
0000
0000
FFEE
001B
0002
FFFB
000F
FFF0
FFE6
FFF7
0003
0007
0016
000A
FFFB
0010
0000
0000
0003
000F
0002
0009
0000
FFF5
FFFD
000B
0016
FFF4
FFFF
001F
000D
FFF6
FFF7
FFFC
FFFB
0004
FFF8
FFF7
000F
FFFA
000E
0017
FFFD
FFFD
0000
0014
FFFA
FFED
FFEA
000D
FFF8
0000
0006
0009
0009
001A
0003
0002
FFF5
FFFE
FFF2
0016
000F
FFF8
0002
FFF0
FFF2
FFFD
000D
FFF6
FFFD
FFF1
FFF9
FFFA
FFED
FFEB
FFFC
FFEE
FFF6
FFDE
0011
FFFA
0013
000B
000F
000C
FFF8
FFF1
FFFB
0001
FFEF
FFFD
FFFC
FFFB
FFF4
FFFB
FFF6
FFF8
FFE8
0002
0002
000C
0002
FFFF
0004
0005
0002
0007
0016
FFEE
FFF6
0003
0009
FFFC
0002
FFF6
FFFF
0018
0007
000B
FFF8
FFFE
000F
0006
0004
0002
0012
000E
FFEA
FFF1
FFF7
0006
0008
FFF1
000A
0006
000E
000C
FFFB
0005
FFFB
0004
0001
0006
0004
FFFC
FFFE
0010
0006
FFFB
0003
FFFF
0001
0001
001E
0011
FFFA
000B
0007
FFFE
FFFE
FFFD
FFF7
0001
FFEC
FFE8
FFF4
0010
FFF2
0000
FFD7
FFF0
FFF4
FFFE
FFFB
000D
FFFB
FFF7
FFF3
0013
0000
0003
000F
FFF7
FFEA
0001
FFEF
FFF4
0001
FFFB
000B
000E
0001
FFF0
FFFB
FFF3
001C
0005
FFF7
FFFA
FFFA
0003
FFFD
FFEB
FFFC
000B
0001
FFFF
FFF7
000D
0003
0005
FFFE
0003
0000
0005
FFFE
000C
FFF8
FFF7
0015
0006
0013
FFE1
000F
FFFE
0002
FFF1
FFF9
0001
0006
FFEE
0008
FFFD
0009
0004
FFF6
0017
FFFA
000B
0002
FFF4
0008
0013
FFFF
FFDD
FFFA
FFEE
0005
FFEB
0007
FFFA
0001
FFF9
0007
FFEC
0007
0010
FFFD
FFDF
FFFD
FFF4
FFFA
FFF6
FFFB
FFFF
FFEA
0007
FFFB
0003
0005
0009
0003
000A
FFFB
FFF8
FFFA
0007
0004
0011
0005
FFF9
0000
FFF5
0001
0005
FFE7
000F
0002
FFFE
0005
0008
FFF6
FFEC
FFFE
0000
0014
000B
0006
0005
FFFE
FFE3
0007
FFF6
0008
FFF7
FFF5
0005
0003
FFFA
0009
FFFD
0003
0002
FFF1
FFFB
0001
FFF9
000F
FFFE
FFF2
000E
0001
0000
0003
000D
0002
FFEF
FFF3
FFF6
FFF2
0007
FFFF
FFF6
FFF9
0002
FFFE
0009
0017
000D
0001
000C
0013
FFFF
FFF7
0001
0014
000F
0006
FFF8
0012
0000
FFF3
FFF9
0013
FFF6
FFEB
FFFE
FFFB
FFFE
000C
FFEC
FFFA
0005
FFFE
0005
FFF7
0005
FFFD
FFF9
FFFE
FFEF
FFFB
FFF0
FFFB
000E
0004
0010
0006
FFF7
0001
0008
FFEF
0010
0013
000E
FFED
0005
0005
FFF4
0017
0001
FFFD
FFEC
0000
0009
FFF1
FFFD
0000
0004
FFF8
FFF0
FFEE
FFFA
0003
FFFE
0003
FFFA
0008
FFEE
FFF8
0009
FFF4
0012
0007
000D
FFF7
FFFE
FFFD
FFF7
FFE0
FFF8
FFF7
FFF2
0000
0012
FFD8
0000
FFFD
FFF4
FFFB
000F
0006
FFFF
FFFF
0000
FFFF
FFF6
000A
0015
FFF4
FFFA
FFF9
0005
FFF6
000B
0004
000D
0000
0025
FFF9
FFF8
FFF8
FFFB
FFFF
FFEE
0007
0008
FFFF
000A
FFF7
FFEA
0007
0009
FFFC
FFF9
0000
FFEF
0012
FFFF
FFEF
FFFC
0003
FFF1
FFFE
0010
0003
0000
0001
002E
FFED
000C
FFFB
000A
0022
0004
0001
FFEE
FFE8
FFFA
FFF7
FFFB
FFF6
FFE6
0002
FFED
0004
FFED
0010
FFF8
FFFE
FFF6
000C
0001
0006
FFEF
FFFA
FFFD
FFFD
FFFA
0008
0014
0009
FFFB
FFFF
FFF1
0007
FFFD
0009
FFF3
0019
0001
FFF0
FFFC
0010
0008
FFF4
FFF4
FFF0
FFFC
0013
FFF9
0018
FFFF
0007
FFFC
FFED
FFF2
000B
0012
0011
FFF9
0013
0001
000F
FFF4
0011
0017
0005
0008
FFF8
000E
0004
FFEC
FFF5
FFF0
0003
FFFE
FFEE
FFFF
FFF8
FFF5
FFFB
0001
0004
000D
FFFD
FFEC
FFFB
0005
0008
FFFC
FFF8
0009
FFF0
FFF2
FFFB
0006
FFF4
FFFD
0009
0014
FFFB
0002
0011
0011
FFF8
0013
FFF7
0009
FFFB
FFF5
000A
FFF8
0011
0002
FFFA
FFF4
FFF7
FFFB
FFFE
FFFF
FFF7
0002
0000
FFF7
FFFB
FFF4
FFEC
0005
000A
FFF0
0008
0018
FFF7
FFF5
FFFF
FFF1
FFFE
000D
FFEB
FFF6
FFF9
000A
FFF5
000B
0004
0018
0022
0000
0004
0004
FFFD
0002
FFFB
FFFD
0001
0009
0001
0019
FFF1
0011
0015
FFFB
0002
FFFA
0007
000E
0005
0005
0003
FFF8
FFF0
FFFE
FFFE
FFFB
FFF6
FFF7
FFFA
FFF4
FFEF
FFFB
0004
000D
0017
FFF1
0002
FFFF
0002
000F
0001
FFFD
001C
0008
FFF3
FFF3
0014
0006
000D
FFFF
FFF8
FFEF
FFEB
0003
0000
0006
001C
0010
000A
FFFD
0003
FFFB
FFF6
FFF8
0002
FFF2
FFFF
0002
0010
0001
0003
FFF7
FFF8
FFFA
0014
FFEB
0010
FFFF
FFFF
FFF3
0000
0007
FFF0
FFFB
FFFF
0003
0001
FFFC
0000
0003
FFE6
FFFE
0003
0000
0008
FFF2
0001
000D
FFF8
FFF7
0002
FFF3
0007
FFFF
FFFF
FFF2
FFEE
000E
000F
000C
0001
FFF2
FFFC
FFF5
0006
FFFC
FFFE
FFFF
0001
FFFA
FFE9
001A
0000
FFFD
000A
0016
FFFA
0007
FFFE
0000
FFF8
FFE7
FFFC
FFFE
FFF1
FFF8
0006
FFFC
0004
FFF4
0009
0001
FFF6
0011
FFF9
FFFA
FFEB
0001
FFF4
0005
0007
FFFA
000A
0004
0002
001E
FFFB
FFFF
000F
FFF6
0017
FFFC
FFF4
0004
0005
0005
FFEF
FFE9
0002
FFF9
FFFE
FFFA
FFFE
0000
FFF5
FFEE
FFFE
0007
FFFE
FFF7
FFFA
000E
FFF8
0003
000A
0002
0004
0002
0009
0001
FFFA
0005
0004
000D
0008
FFF1
0008
0000
FFFE
FFF2
FFFA
FFF8
FFFD
FFFB
FFFA
FFF5
FFFE
FFFA
FFF7
0000
FFF9
0005
0001
000D
0001
0003
000B
0001
0004
FFF8
FFFA
FFDF
FFE2
FFFA
FFF6
0001
FFF3
0005
0011
0014
FFF2
000D
0002
0001
0011
FFF4
FFF9
000F
0003
FFF8
FFF1
0011
0011
001E
FFF3
0018
0001
FFF9
0007
FFF8
FFF4
0000
0008
000E
FFF5
FFF4
0002
FFEE
FFF9
FFFD
FFFF
FFFB
000B
000D
FFFD
FFFC
FFF9
FFFE
FFFA
0004
0006
FFFE
FFFD
FFFB
FFE6
0005
0007
FFEE
FFF8
FFF2
FFF9
FFFA
0001
FFF8
FFF2
FFFF
FFFB
0005
FFF2
000A
FFFF
FFEC
0002
FFFE
FFFE
0004
FFF1
0002
0017
FFFE
0001
FFF3
FFFE
FFF5
0012
0008
0005
FFEC
FFFE
FFFB
0007
FFF6
0005
0000
FFF8
0004
0005
FFEA
0001
000B
0001
0017
FFE6
FFFB
FFFF
0003
000B
0000
0012
0004
0007
0000
FFF5
000E
001F
0011
000F
0004
FFEB
0016
0006
0016
0003
FFFB
0006
0000
FFF6
FFFF
0004
FFFA
0002
FFED
000E
FFF6
0002
0014
0007
FFF1
FFF6
0003
FFF7
0011
FFFA
0000
000D
000F
0003
FFFE
000A
0005
FFF2
FFF2
0008
0005
0002
0008
FFE7
0005
FFF7
0012
FFFF
0009
000B
0005
FFFB
0018
FFFF
FFEC
000B
000B
FFF9
FFFC
FFFB
0010
FFFE
000A
FFFD
FFE6
FFFF
0002
0004
000C
001B
FFF7
FFFB
0004
FFFC
FFF4
FFF8
0000
FFF7
FFF6
FFFB
FFF4
0003
0017
FFF8
0017
0004
FFF9
0018
FFFD
0018
FFFB
FFF7
0017
FFFA
0007
FFF2
FFFD
FFF9
001D
0002
FFFD
FFFB
000B
000A
FFF9
FFF9
000A
000D
0012
FFF5
FFFB
0000
0009
FFF7
FFFA
FFEF
FFFE
0008
FFFB
000E
FFF5
FFFB
FFF8
0004
FFEE
0012
000B
FFF7
0000
0005
FFFC
FFFA
FFF9
FFFC
000C
0001
FFFD
FFFE
FFF0
0006
0010
FFF2
FFFF
FFF0
FFF4
FFF4
FFF5
0005
FFF8
0007
0000
FFD8
FFFC
FFFC
FFFD
0001
FFFD
FFF3
FFFD
000A
FFF0
0014
FFEA
FFF9
FFF6
0000
0008
0006
0003
0002
FFED
000A
0008
0005
FFFE
0007
FFE4
FFFC
0001
0005
0002
0003
0007
0000
FFEE
0007
FFF8
0003
FFEE
0006
0011
0022
0003
0010
000B
000D
0003
0004
FFE8
FFEF
FFE0
0003
0005
0004
000D
0001
0007
FFF3
0004
FFFE
FFFC
FFFF
000B
000A
FFEA
0010
FFF3
0009
0008
0009
000B
000A
FFFB
0004
FFF5
0002
FFFA
FFFD
0013
0003
0000
FFFF
FFF6
FFF4
0008
0002
0006
000B
0002
FFFA
0005
FFED
001E
0011
0004
FFFD
0011
FFEE
FFF4
0009
0020
000D
FFF9
001E
0004
FFF2
0001
FFF4
FFFF
FFF7
0028
FFFB
FFCC
001D
000E
FFED
FFFC
0004
000D
FFF7
0000
FFFF
FFD8
0006
FFFC
FFF3
000E
FFF4
000E
FFFB
0019
000F
FFEB
FFFD
0015
FFF1
0001
000D
0012
0007
FFF5
FFF1
0010
FFEC
FFEC
FFFF
0003
000A
FFFF
0008
0021
FFFB
FFFE
0007
FFFD
FFFF
0018
FFF5
0014
0014
000A
FFFF
FFFE
0013
FFFB
FFF1
FFFA
FFFB
FFF4
FFF5
0003
FFFC
0003
FFF8
0005
FFEF
0000
FFFF
0012
FFFE
FFFD
000F
FFF6
000A
FFF7
FFEA
FFEA
FFF5
0009
FFF5
FFFD
FFFF
FFF3
000A
0007
FFF3
0010
0011
0007
0005
000B
0001
FFF1
000F
FFFA
0020
0001
0000
FFE8
0008
FFF5
FFF2
0010
001D
000E
0015
FFEC
FFF0
0004
FFFD
001C
0005
0001
FFF8
0004
FFF1
FFFA
000A
001E
FFFF
FFEA
FFFD
0004
FFFC
0003
FFFB
FFE1
0008
0002
FFF9
000B
0006
FFF1
000D
0009
0017
0002
000C
0000
0003
0010
FFF9
000F
0009
0004
0003
0011
0001
0013
0006
0007
FFF5
0013
FFF3
FFEB
FFEA
FFF1
0002
FFF6
0010
FFEE
FFF7
FFE5
FFF4
FFF7
000C
FFFB
0011
FFF9
0004
000F
FFF8
0001
000C
FFF0
0019
0002
0004
FFF8
0000
0006
0001
FFF0
000A
FFF9
0007
FFFB
0006
0005
0009
0002
0000
000F
0008
000C
000A
FFFE
FFFF
FFFD
FFF5
FFDB
000B
FFF8
FFFF
FFEB
FFFA
0016
FFF7
0007
FFF7
FFFF
0010
FFFB
0001
000D
0020
000D
FFF4
FFF7
0003
0004
0004
0005
FFFB
FFE5
FFF8
0001
FFF8
FFFF
FFF1
0003
000A
FFFF
FFFB
0002
FFFD
0001
FFFA
FFF8
FFFF
FFF5
0009
0001
0001
FFF2
0009
0004
FFFE
FFFD
FFFE
FFF1
FFF8
0003
FFFF
0018
FFF9
FFFF
FFF6
0006
0000
FFFD
FFF5
FFFF
FFFE
FFFB
0001
FFFF
FFE9
0006
0005
0003
FFFF
FFFD
FFFB
FFF0
0004
0002
FFF8
0009
FFFA
FFF5
0002
0002
0004
FFFB
FFFC
FFF7
FFFE
FFFC
0000
0001
0003
FFF5
0002
FFFC
FFFC
FFFB
FFDE
FFF9
0003
0004
FFF9
FFFD
FFFB
0001
0002
0000
FFFF
FFFD
0011
000B
FFFD
FFFF
FFE2
0000
0006
FFFA
002C
0003
FFF4
0000
0002
0001
0006
FFFE
0002
FFF8
000B
0001
FFFA
FFF9
FFEE
FFFF
FFFD
FFFB
0007
FFFF
FFFE
FFFE
0001
FFFF
FFF9
001C
0005
FFEF
0007
0004
0004
FFF7
0000
FFFD
FFFF
0008
FFFB
FFF7
FFFD
FFFB
0002
FFFB
0001
0009
0002
FFFD
000A
FFF9
0004
FFFE
FFFA
0004
FFFA
FFFC
0005
FFFA
0002
0003
0000
0005
FFFC
FFFD
FFFF
FFF5
FFFE
0000
FFFD
0007
FFF0
FFFA
0000
0003
FFF8
0005
FFFD
0001
0001
FFFC
FFF6
FFF7
FFF0
FFFC
FFFE
0003
FFFF
FFF9
FFF7
FFED
FFFD
0004
FFFF
0000
0001
FFFA
FFFD
FFFE
0003
FFFA
0003
FFFE
0006
0003
0000
0004
FFFF
FFFF
0006
FFFC
FFF7
FFFD
0001
FFFA
FFF1
FFF3
0005
0004
FFF8
FFFE
0000
FFF8
0002
FFFA
FFFF
0002
FFFD
FFFE
FFFA
FFFF
0014
0001
FFF6
0000
FFF5
0000
0001
FFFB
FFFC
0040
FFF7
0002
0002
0002
0001
FFFE
0001
0001
FFFD
0003
FFFD
FFFE
FFFE
FFFA
0002
0004
FFFE
0001
0001
FFF8
FFFF
0008
0001
FFFF
0001
0003
001E
0008
FFF8
FFF3
FFEE
0003
0014
0005
FFF4
FFEC
000C
0019
0000
0002
000D
0007
FFE4
000B
FFF7
FFFC
000F
FFEE
0006
000D
0007
0003
0007
0000
FFE8
000E
0008
FFFC
FFFA
FFFE
000D
0001
000F
0015
FFFC
0000
FFF4
FFF3
0001
FFF8
000F
000A
0001
0005
FFF6
0005
FFEF
000C
FFF6
000C
FFF6
FFF9
FFF6
0006
FFEA
FFDF
FFF4
FFEE
000D
FFFE
FFF9
0005
FFF3
0007
0005
000A
000B
0004
FFFB
000F
FFFD
FFF9
0005
0010
FFF2
000C
0003
000D
0008
0010
0004
FFF9
000D
000F
FFF9
001C
0005
0003
0001
0005
0006
000E
FFFC
0005
FFF9
FFFB
000A
FFFC
FFFD
0006
0001
0005
0003
000C
0002
0006
FFF0
FFE9
0008
FFE6
0002
FFF0
FFF9
FFF3
000E
000E
0013
000B
FFFF
FFF6
000A
0006
0008
000A
0005
0013
0011
0000
0004
0003
000A
0015
0006
000F
0006
FFF9
0009
FFFE
FFF5
0008
0007
FFFE
001B
0004
0002
FFF2
FFFF
FFE8
FFEB
0009
FFF8
0000
FFF5
000A
000D
FFEC
FFFD
FFFE
FFF9
FFF6
FFE8
FFFB
0009
000A
FFFE
0009
0007
0008
000C
FFF3
FFF1
FFEE
0007
FFF3
000F
FFF7
0006
FFEA
0017
FFFF
0002
FFFF
0005
0010
0005
001E
0002
0014
000A
FFFC
FFF3
FFFE
FFFC
0017
0005
FFFB
FFFC
0002
000C
0001
FFF9
FFF4
FFEF
FFFC
0003
FFF7
FFEB
FFE5
0009
0002
0013
FFE8
FFFA
0001
000C
FFF6
FFFA
0010
0002
FFFA
FFF2
001D
000F
0018
FFFA
0009
0016
0007
0006
000C
000E
FFF4
000A
FFFB
FFF5
0005
FFF3
FFFE
FFFD
0002
FFFF
0006
FFFB
FFFD
FFF3
FFF6
FFFD
FFEA
000C
000B
FFFF
0003
0000
0011
FFFC
000B
0009
FFFE
FFF5
FFFB
000A
000F
0017
FFFB
0005
0004
FFFD
FFEA
0004
0001
0002
001E
FFFD
FFFF
000B
0011
0014
FFE0
FFFF
000F
0007
FFEE
FFFB
FFFC
0011
0001
0005
0006
FFFC
FFFA
FFFF
FFFA
FFF6
000F
000D
FFFB
000E
000A
0001
0005
0002
FFDD
0001
0014
0004
FFFA
0000
FFFF
FFF9
000C
000C
FFDD
0001
FFFB
000B
0014
0002
FFFE
FFF9
000F
FFFA
000F
0001
0035
0008
0009
FFFF
0003
000B
FFFB
0009
0008
FFE4
FFF5
0001
0009
0009
0011
0000
0000
0015
FFF5
FFF9
0004
FFFD
FFF6
FFDF
0017
FFF6
0015
0011
FFF8
0013
000A
0019
0005
0001
FFFB
0010
000E
FFF0
FFFE
0003
0006
FFFF
FFE2
FFF8
0006
0008
FFF0
0009
FFF6
0015
FFF9
0013
FFFE
0003
FFF9
FFFF
0009
FFFD
FFFA
0008
000D
000A
0002
0002
FFF6
FFFC
0010
0003
FFFE
0000
000C
0001
FFF8
000A
000E
0003
0006
0008
000B
000E
FFFE
0009
FFFE
FFF2
000B
0023
0014
FFFA
0008
0011
0005
0007
0002
0023
FFFC
FFFE
000D
0009
FFFB
FFFD
0000
0002
FFE8
0002
0014
000A
0029
0008
000C
FFFD
0005
0000
0002
000B
0004
FFFC
0011
0001
FFFE
0007
FFF8
FFFC
0004
0000
FFFB
0006
FFF9
FFF7
000E
FFF7
0005
0014
FFFC
FFFE
0010
FFFB
0006
0010
0000
FFEE
0001
0011
FFF5
0005
FFF6
0009
0007
FFF2
000B
FFDF
0011
0009
FFEF
001A
FFFC
0009
FFFE
0000
0001
FFF9
0006
FFF9
FFF4
FFF9
0001
FFF3
0008
0002
0004
FFF4
FFF8
FFFC
0007
0003
0007
0004
0008
0014
0019
0005
0005
0009
0003
FFF3
FFFD
FFF6
FFFA
0015
FFFE
FFEF
FFF9
FFF3
FFF8
FFFE
FFFB
FFF2
FFF8
FFF9
FFEC
FFFD
0007
FFFC
000D
FFFC
FFF9
FFF7
000B
000A
0012
FFF4
000C
FFFD
0003
FFEF
FFFA
0004
0002
0005
FFE7
FFFF
FFFD
FFFF
0012
0006
000F
FFFA
FFEF
FFFC
001B
0014
0003
0013
0006
FFF7
0002
0013
0000
0001
0008
FFF3
000A
0021
0012
0006
0003
FFF3
FFFC
FFFA
FFFA
0004
0006
FFFB
FFFA
001A
FFD5
0001
FFF6
FFF8
FFFA
FFF8
FFEC
001C
0017
000B
FFFB
FFFC
0013
FFFB
FFFA
FFF9
FFF3
0007
0001
FFFC
FFFC
0014
FFFE
FFF7
0019
FFFF
0004
0010
FFFD
0009
FFF1
FFF9
FFF7
FFFB
FFF7
FFF9
000A
0000
FFED
FFFC
0019
FFFC
0001
FFFC
000E
0004
FFF0
0004
000B
000D
FFF9
000A
FFF8
0005
FFFB
000A
0006
0006
0008
0008
0008
FFFD
0009
000A
0000
FFF4
0010
0013
000A
FFFE
0003
0006
FFFD
FFF2
0008
FFF6
FFFC
0010
0000
000E
000C
FFFD
0019
000D
0006
0015
0004
FFF3
0018
0003
FFFC
FFFF
FFFC
FFE0
0008
000C
0001
0013
FFF9
FFF8
0004
FFF1
FFF1
0005
0005
001F
0007
0004
FFF5
FFF0
FFFB
000D
FFFD
FFE4
FFFD
0001
0015
000B
0001
FFEE
FFF9
FFF8
0003
FFFD
0013
FFF7
000A
FFF9
FFFD
FFFF
FFF7
0003
0000
000C
000D
0009
0016
FFFD
FFFF
FFFA
FFFB
0000
0015
0001
FFFB
FFFD
FFFF
0006
FFFD
0015
FFF5
0006
0000
000A
FFF7
0009
0000
0004
FFF9
FFF3
0001
000A
000B
FFF7
FFEC
0004
000E
0007
FFFC
FFFE
000C
FFF6
0001
000A
000F
000B
0000
FFF5
000C
FFFF
FFFA
0000
0006
FFFF
0002
FFFB
0006
FFF7
FFFE
0000
FFFA
000D
FFFC
FFFD
FFFC
FFF9
0001
FFFE
FFFF
FFFA
FFF9
0009
FFEE
0000
0004
0008
000D
FFF8
FFEA
FFFF
FFFE
0003
0003
0016
0001
FFF8
0011
FFFC
0006
FFF7
FFF7
FFFC
FFFD
FFFF
0000
0002
FFFE
0003
FFFA
0008
0005
000E
000A
FFFD
FFFA
0002
FFFB
0003
0003
FFFE
000F
FFFC
FFFE
000A
0010
0003
FFFD
0009
001B
0006
0000
000A
FFF4
FFFD
0015
0004
FFFA
FFFA
FFC4
000F
FFFF
FFFE
0001
FFFF
FFFD
FFFE
FFFF
000C
FFF9
FFF9
FFFC
0007
FFFC
FFFD
FFF7
0014
0003
0004
0001
000F
FFFF
FFF5
0002
FFF8
FFFB
FFFC
FFFF
0003
FFFA
FFE8
FFFE
FFFF
FFFB
FFEF
FFFC
FFFA
0001
0002
0002
FFFB
0009
FFE3
FFFD
FFF8
FFF6
0005
0000
0007
0000
0000
FFF9
0002
FFFD
0003
FFFE
FFFB
FFFF
0004
FFFA
FFF4
0001
FFFA
FFF6
0001
0000
FFF8
FFFF
FFDC
FFFE
FFFE
0006
FFFE
0004
FFF7
FFFB
FFEE
0006
0001
0002
0001
0000
FFF9
0029
0003
FFE4
0000
000C
FFFB
FFFD
0002
0001
000B
0000
FFFD
0003
FFF9
0001
FFF8
FFF1
FFEF
FFF9
FFFF
0004
000A
FFE0
FFF1
FFF3
FFF6
0005
FFF8
0004
0005
FFFE
FFFE
FFF2
FFFF
FFF7
FFFC
0002
0001
000D
FFFD
FFFB
FFFC
0000
0006
FFFC
0011
0003
FFC0
FFFE
0006
FFF5
FFFF
FFFA
FFFE
FFFA
0007
FFFB
0004
0000
0001
FFFC
0001
FFFD
0007
FFFF
0012
0007
FFFF
FFFF
FFF6
FFFF
0000
FFFD
FFF9
FFF2
0000
0007
FFFE
FFEC
FFFB
FFFE
FFF8
0004
FFFD
0009
FFEB
0004
001E
0008
0002
FFEB
FFFE
0006
0000
FFF4
0000
FFE9
FFF0
0000
000F
0003
0001
0010
FFE5
0009
FFF5
0007
FFEF
FFFA
FFF5
FFF8
0000
0004
FFFD
FFFE
FFFB
FFFA
FFF4
FFF8
000D
FFF3
0014
001B
FFFF
0001
0010
0006
0004
FFE9
FFEE
000E
FFFE
FFFE
000D
000A
0009
FFEC
FFF8
FFF9
000E
0007
FFEC
FFF9
FFFF
FFFE
FFEE
0018
FFF9
0006
FFF7
000F
0014
FFFD
FFF8
0010
0005
000A
FFD8
FFF9
FFEB
0013
0002
0009
0012
FFFA
0008
000D
FFFD
0009
0008
FFF8
0006
000C
FFF8
FFF6
FFFB
FFFF
0003
FFF4
000B
000E
FFF7
FFEA
0009
0007
0001
FFF6
0005
000B
FFF5
0017
0009
000C
0006
FFFD
0009
0000
0010
FFFA
0006
0008
0013
0005
000B
0011
FFF1
0011
FFF5
001A
0004
FFFA
0000
0000
000D
FFE4
0004
FFFC
0007
0001
FFFB
0000
0001
0008
FFFB
FFF3
FFF9
0009
0006
0000
0007
FFF8
0006
0007
FFFD
0005
0007
FFE9
FFF8
0004
0000
FFFF
000A
FFEF
FFFA
0008
FFF4
000B
FFED
FFF3
0012
000E
FFFC
0003
000C
FFFA
0005
0001
0010
0004
0007
FFFA
0002
FFF0
000D
0005
FFF1
0000
0008
FFEE
0000
FFFE
0003
0008
0014
FFFB
000A
000F
FFFA
FFFD
FFEA
FFEC
0002
0003
0014
0004
FFFA
0010
0013
FFFE
0011
000A
FFE6
000C
0008
0001
FFFE
FFFE
0000
0005
FFFA
0006
FFFC
0006
FFF9
FFF6
FFF4
0007
0006
FFFB
000C
000D
FFF5
0011
FFF1
FFF1
FFF1
FFFF
FFF3
0008
FFFD
FFF5
0008
0001
FFF9
FFFD
000B
FFFD
000C
0002
001A
0007
000C
0015
FFFC
FFF7
FFF4
FFF2
000D
0004
FFF5
FFF0
FFFB
FFE6
FFF3
FFFF
0005
0005
FFF4
FFF0
FFFA
FFED
FFEF
FFFC
0014
0008
FFF0
FFF8
0020
000C
0010
0002
FFF7
FFFA
0016
FFF8
0006
0001
0014
000D
0006
FFFA
0011
000B
000F
0007
0000
FFF5
000D
000A
FFF8
FFF4
FFFD
0011
FFFB
0007
0013
0000
FFFC
000A
0019
FFFA
0002
FFFA
001C
FFFE
FFE8
0013
0000
FFF8
0003
FFF4
001A
001D
000A
FFFA
FFFD
0010
0003
0000
000E
FFFC
FFF1
0007
FFF9
0011
0003
000A
0006
0009
FFF4
0007
FFEE
FFF1
FFF3
FFFE
FFF8
0010
FFE7
FFDE
0001
FFFA
FFF4
FFEA
000D
FFFD
000E
FFFD
FFFA
0016
0004
000A
FFFC
0001
FFFF
FFF2
FFFD
FFFC
000D
0007
0001
FFEC
0011
0002
001A
0004
0004
0000
0013
0005
FFF4
0003
FFEF
0011
FFFA
0002
FFF5
000D
FFFB
0008
FFF9
0010
0004
0001
FFEF
0000
0009
0004
0014
FFFB
FFF3
FFF1
000B
FFF2
FFF8
0001
FFF1
FFFB
FFFF
FFF1
FFF9
FFFD
0009
FFEF
0007
0013
FFF5
0008
FFF0
FFF1
FFF4
FFFC
FFFB
0003
FFED
0002
0006
001F
000A
FFF9
0010
FFF2
FFF8
FFF6
0000
0014
FFFB
0005
FFF2
FFEC
0018
0010
0005
FFFC
0003
0006
FFFF
001E
FFF6
FFFE
FFE1
0007
FFF6
0006
FFFB
FFEA
FFFA
0007
FFFC
FFF8
FFF8
0009
FFF3
0006
0003
0010
FFF6
FFF0
FFF2
0008
0001
0002
0005
0019
0007
FFFF
FFF5
FFFF
FFFE
000E
FFF4
000A
0005
001B
FFE9
FFF0
0000
FFF3
0007
FFF4
000D
0000
FFFB
FFFC
0011
0007
FFFD
FFEC
FFFF
FFFE
0017
FFFC
FFEB
FFF7
FFF8
000F
0006
FFFE
0005
0017
FFFC
0006
FFFA
FFFE
0018
0006
FFFE
0014
0000
0014
000A
001D
0000
0015
FFF6
0009
FFF0
FFFA
FFFF
0001
FFFD
0016
0009
FFEF
000F
0004
0009
0002
FFF1
FFE4
FFFE
0000
FFFC
0008
FFFD
000B
0005
FFF7
0001
FFFA
FFF6
FFF9
FFEB
0007
FFF1
FFF7
FFFE
FFFE
0008
000A
FFF9
0009
0016
0002
000D
0001
0006
0006
000E
0009
0003
0010
000C
0000
FFF5
FFF1
0001
FFF7
0006
0010
0002
0003
FFF0
FFF9
FFFF
0014
FFEA
FFF6
FFF4
0007
000D
0009
FFFC
000B
FFFE
FFF7
FFF6
0000
FFDE
0004
FFEF
FFFA
FFFC
001F
0010
FFEF
FFFB
000A
000C
FFFB
FFF7
FFFA
FFFC
0003
0000
FFE9
0001
FFF2
FFFF
0002
000D
FFE4
FFF8
FFFC
0001
FFFC
0003
FFF6
FFF8
0017
FFFF
FFE7
000C
FFF7
0008
0007
0001
FFFA
FFEC
0008
0006
FFFD
000D
FFE7
FFF4
0008
FFEC
FFFC
FFF0
FFF7
0008
0000
FFF3
FFF0
0015
FFFB
FFF6
000E
FFED
FFF6
FFEC
FFFC
FFFF
0015
FFFB
FFFC
FFFD
FFFF
FFFD
FFFA
FFFD
FFFD
FFED
000C
0002
0006
0004
FFF6
FFF3
FFF6
FFF6
0003
0003
0003
FFFE
FFFB
0008
0008
0007
FFFA
FFEB
0005
0002
FFF8
FFFD
000F
0001
0010
0007
FFFE
0003
0011
0004
000E
FFF4
0009
0003
FFE5
FFFC
FFF3
000E
FFF2
FFF8
0001
0010
0007
FFF8
FFFB
0007
0008
0001
FFF7
000B
0000
000B
FFF0
000D
FFE1
0007
FFFA
FFE7
0007
0006
FFF7
0003
0007
0008
FFEB
FFF7
FFEF
0005
FFFD
FFF9
FFF7
000E
000B
0003
0012
0009
FFF3
000C
0000
FFFB
FFF6
FFF4
0002
000F
FFF9
FFF4
FFF9
0005
000B
000F
FFFB
FFF0
FFF7
0006
0006
0009
0014
FFFA
000A
0007
FFFC
0004
FFEA
0006
0017
0006
FFFA
FFFD
FFF6
000D
FFF4
FFFB
FFFC
0002
FFEE
000A
FFF9
0000
FFF1
FFF5
0008
001A
FFFA
FFFA
0011
0009
FFFA
0008
FFFA
FFFF
0005
0010
FFF2
0003
0005
FFF8
0007
000A
FFF2
0004
FFF8
FFF1
0013
0013
000E
FFE4
0004
FFFF
000F
FFFA
000D
000C
0004
FFFA
FFF1
FFF1
FFF8
0007
0012
0001
000E
FFF0
FFF6
FFFF
001C
0003
0004
FFFF
FFF8
FFFC
FFFC
FFF8
0000
FFF6
FFEF
FFF8
001F
0001
0006
000C
0003
FFFF
FFFF
0011
0007
0006
FFFE
0002
0011
FFFA
0001
FFFF
0001
0007
FFF3
0006
0007
FFF6
FFF0
0006
0011
000D
0002
FFF8
FFF9
0008
0000
0004
0000
0013
FFFF
FFFA
FFEB
FFFC
FFF8
FFF1
0000
FFFF
FFF7
FFFE
FFF7
0017
0009
0009
000F
FFFE
0012
FFF0
0005
FFF5
FFF0
FFF0
000C
000D
0000
0014
0020
FFF8
FFF4
FFF2
0004
0012
FFFB
0009
FFEC
FFFF
FFF9
FFF2
0016
0009
FFF3
FFFC
FFF3
FFFF
FFF3
0001
0006
FFF1
FFF6
FFFC
0006
0002
0006
0013
0003
0007
FFFC
FFF8
0005
FFFB
FFF9
0004
FFFA
0002
FFF0
FFFB
0009
FFFD
FFFE
0008
FFF2
FFEB
0000
FFFB
0001
FFEA
001B
FFFB
0024
0016
FFF3
0015
0004
0006
000E
0012
000F
000F
001A
FFF9
FFF6
001C
0004
FFF9
0005
FFF2
FFF6
0009
0004
FFF1
FFF2
000B
FFE6
0000
000B
0002
FFFF
000F
0008
FFFE
001A
0005
000D
0012
0002
FFFF
0001
0007
FFF3
0012
0004
FFFF
0004
0012
FFFE
FFFC
0009
FFEF
FFF1
000F
FFEE
0008
FFFA
0006
0001
FFF9
000A
0008
0002
0004
000D
FFFC
0003
FFF5
FFF5
0008
0023
FFF0
FFED
FFF3
0009
FFFA
FFF0
0003
0017
0000
FFFD
000F
0007
FFF5
0007
0000
0009
0003
0015
0000
FFEB
FFFA
000E
FFFB
0006
0000
0008
FFDF
FFF1
0012
FFFB
0002
FFFD
FFF1
000B
FFF1
FFEE
000E
FFFD
FFF4
0007
FFD8
0001
0002
FFFC
FFFA
0003
0001
0004
FFFC
FFF1
0000
0004
0004
0000
FFF8
0002
0018
0007
0000
000C
FFFA
0008
0000
001B
0003
FFEB
0003
0005
0007
0009
FFF9
FFFD
0004
FFFA
FFEF
000E
FFF3
FFFB
0001
0007
0006
000A
000E
FFFA
FFFB
FFFD
FFF3
FFEE
FFFF
000C
FFFE
FFF5
FFF7
FFFA
0001
0009
FFF8
0005
000A
0007
FFFB
FFF8
FFEE
FFF3
FFFF
FFFC
FFFA
0004
FFF2
FFF3
FFFC
0015
0002
0006
0006
0008
0023
FFFB
FFFD
FFF6
001C
FFF5
FFF6
0004
FFF2
FFFC
000B
0000
0004
FFFA
0018
0009
FFFF
FFF5
FFFF
000A
FFFB
0009
FFFD
FFF5
FFFF
0008
FFFA
0007
FFF5
0002
0005
0019
FFED
FFF1
000F
0009
000A
FFEB
0004
FFFA
0005
0000
FFF8
000B
0000
000E
000E
0001
FFE1
001D
0007
000C
FFF6
0000
001C
FFFB
FFFE
0020
FFF2
FFFC
0004
0000
FFF9
FFEF
0011
FFFF
000A
FFFB
000E
000B
FFF6
0010
FFFF
FFF6
0018
0003
0006
FFE9
FFFF
FFFA
FFF9
FFFD
0008
0006
0015
FFF9
000E
001A
FFF3
0005
0011
FFFA
FFEB
FFE2
0005
FFF7
0009
FFE7
FFFE
000B
FFFE
FFFD
FFFD
FFEA
FFFE
FFFB
FFFC
FFF8
0007
FFFD
0007
0008
0004
FFF0
0004
FFF1
FFFE
FFE8
0000
000F
000F
FFFF
0002
FFF5
0006
FFFE
FFFA
FFF3
FFFF
FFFA
FFE5
0006
000C
FFF8
0007
0001
0009
0009
0007
000A
FFF3
FFF4
FFF0
FFFF
FFF3
0025
FFF9
0008
0006
FFFF
000C
FFF7
FFE9
FFFB
0001
FFF8
0007
FFF7
0024
FFFA
000C
0005
FFF5
FFF2
0001
FFF7
FFEA
0003
0019
000A
FFF2
FFF9
0016
0006
FFF6
0004
0000
FFE1
FFFC
FFF1
0017
0009
0013
FFF3
0001
000A
0004
0001
FFE9
FFFB
FFFF
0003
0004
0008
0005
000E
FFFA
FFF9
FFFE
0004
FFF5
FFFA
0001
FFF6
FFF7
FFFE
0005
0000
FFF4
000B
FFF3
0010
0011
FFF1
0000
001F
0000
FFF9
FFFF
FFF1
0005
0014
000B
0001
FFF2
FFF0
0004
000B
FFFE
FFFD
FFF8
FFFB
FFF8
000A
FFF9
0018
FFEB
000C
FFFA
FFFB
0006
FFFC
FFFF
FFF0
0000
FFF8
FFE0
FFF7
0003
FFF3
000B
FFE5
0006
0002
FFFF
FFF6
0002
FFF5
0004
000C
0004
0002
0007
FFED
000E
FFDC
FFF7
0002
FFFF
FFEC
FFF8
FFF2
0010
0004
FFFA
0000
FFF3
FFFC
FFF0
0010
FFF6
0000
0022
FFF0
FFF7
0003
FFFB
000C
FFFD
0005
FFFE
0003
000B
0014
FFEC
0002
0000
FFF1
FFF9
0009
0018
000A
FFE6
000C
0009
FFFA
FFED
0005
FFF4
000D
FFEB
0007
0016
FFF0
0008
FFFC
0009
0003
0012
0001
FFF1
0005
0009
FFF7
FFEE
FFFD
FFF4
FFFF
FFF5
FFF4
0008
000D
0005
0000
FFFB
FFFC
FFFD
FFF4
FFFF
FFFC
FFF7
FFE7
FFFA
000F
FFFB
FFF9
FFFE
0002
0004
FFEA
FFF6
FFDA
0008
0013
0019
FFFC
FFFC
000C
0000
000F
FFFE
FFE4
FFEA
0009
FFF1
0000
FFF6
001C
FFE8
FFE1
FFFF
0007
FFFC
000E
0014
FFFC
FFF7
FFF1
FFE5
0006
0011
FFFC
FFF8
0008
0000
0004
0000
0008
FFFD
0003
000D
0003
0007
FFF7
0001
FFEE
000A
0021
FFE6
FFF8
FFFE
FFF6
000E
FFFA
0008
FFF9
FFFD
0002
FFD7
000F
FFFE
0008
FFEE
0005
0000
FFEF
FFF7
0007
0016
0005
FFF2
0004
FFEF
000D
0001
FFF5
FFE7
0000
0003
0006
FFE9
FFF7
FFF3
FFF1
0001
FFF7
0000
FFF9
0001
000A
FFFA
FFF8
0009
FFF8
0004
0002
FFFF
FFFA
FFFD
000A
000C
0008
FFF8
FFFC
FFFC
0026
000F
0009
0009
FFF2
FFFB
001D
FFEA
0000
FFFB
0001
FFFB
FFF4
FFE3
000C
0000
FFEB
0002
0005
FFFF
000A
000A
0004
FFFD
FFF9
FFEF
000E
FFFA
0007
0004
FFFF
000E
0004
0008
000D
FFF3
FFEF
0002
000B
FFFD
0009
FFFD
FFFF
0004
001D
0002
FFF7
FFEB
FFF8
FFF5
000D
0016
FFF9
0002
FFF6
FFFF
FFFD
0004
FFFF
FFFD
0008
FFF6
FFFD
FFFD
0008
0004
0009
FFFB
FFFE
0011
FFF7
0014
FFFF
FFF2
FFF3
0008
FFF6
FFFC
0003
FFFB
0011
FFEA
000F
FFED
0012
0010
FFFF
FFF4
0001
000A
0007
FFF5
000B
000D
0010
FFEF
0001
0006
FFFE
FFE9
FFF0
0000
FFF3
FFED
FFF3
0003
FFFF
0001
FFEC
0004
000B
FFEE
FFFA
0008
001A
FFF1
0001
FFFD
FFF6
000D
FFF6
0015
0008
FFFF
FFF9
0004
FFEC
FFFE
000F
FFED
FFF4
FFFE
FFF3
FFF5
0002
000F
0002
0002
0012
0010
FFF9
0001
FFF7
000B
000B
0010
FFFA
0001
FFED
0010
FFF6
0004
0001
FFFF
0006
FFE9
0001
0003
FFF9
FFF3
0003
FFF6
FFFF
0005
000B
FFFF
FFF7
0010
FFF0
0006
0004
FFF9
000B
0006
FFFE
0004
FFF8
0009
FFF1
0020
FFFE
FFF5
0001
FFF4
0000
FFFB
FFF6
0008
FFF9
FFFD
0002
0005
0010
0008
FFF7
0008
0001
0008
0002
FFFD
FFE8
FFE7
0003
0005
0015
FFEA
0002
0002
FFFF
0011
0001
0008
FFF7
001B
FFF3
000F
FFF5
FFF2
0003
FFFE
0003
FFF2
FFF1
0000
000F
0000
FFEF
FFE8
000A
0003
FFF2
FFFE
FFF1
FFF9
FFF7
FFFF
0018
FFF6
0000
0014
0003
FFF2
0004
0006
FFDC
FFF5
0000
0000
FFF3
0002
000F
0004
FFF6
000C
FFF5
FFFA
FFED
FFF6
0000
0006
FFFE
0001
FFF9
FFEC
FFF4
FFF8
0003
0015
FFFB
000B
0001
0001
FFE3
FFFC
FFF9
FFFE
0007
FFF0
0008
000E
FFFC
FFF9
0006
FFFA
FFE8
0003
0009
0000
FFEC
FFF9
0002
FFF2
0016
FFF8
0003
FFF5
FFFC
FFFE
FFF6
0018
FFF0
FFF7
FFFD
FFF8
001D
FFFC
FFED
0001
FFFD
0007
0000
FFFF
FFFF
FFF5
FFFF
FFFB
000A
0012
0002
0005
FFFE
FFFE
000A
FFFE
000C
000A
0006
000A
0002
FFFD
0004
FFFA
FFF2
FFF8
FFFC
0004
0004
0005
0003
0028
FFE9
000A
FFFF
FFF3
000A
FFF9
000B
FFEC
0002
FFEC
0001
0013
FFFB
0001
FFED
0010
FFF1
0002
000E
000E
0004
FFEC
FFF8
FFF3
0007
0003
FFFF
FFF1
FFFA
000F
0002
000F
FFF0
FFF1
FFEE
FFF8
FFFF
0002
0012
FFF6
FFF7
FFF5
0008
0005
0007
0004
0000
FFF7
0005
FFEE
FFEF
FFFD
0010
0004
0009
FFF1
FFF0
0012
FFE7
FFFC
0007
0014
FFF6
0001
0005
0002
FFF9
FFE5
FFFD
FFFA
FFFF
0006
FFFB
FFEA
FFF5
FFFB
FFEB
FFEA
FFF6
0007
0013
0008
000D
FFFB
FFED
FFE3
0002
FFF6
FFFE
FFE0
0008
FFF9
FFF6
000B
0001
FFEF
FFFA
FFFE
FFED
0004
000F
FFDF
FFF9
000D
0003
FFEB
FFEE
0002
FFF8
FFF5
FFEE
000A
FFEE
001A
0004
0002
0002
FFFD
FFF7
000C
FFD8
0004
FFFC
0005
0004
000B
0002
FFE4
FFF0
0001
FFF7
FFF9
0017
FFFB
000B
FFE8
0012
0001
FFFE
0002
0000
FFFE
FFFA
FFF3
FFFA
FFF5
000B
FFFE
0001
FFF8
FFFB
FFEE
0007
0009
FFD9
0002
0014
0006
0005
0002
0005
FFF4
0011
0008
FFEF
FFFF
000D
FFF4
000E
FFF4
FFFB
0001
FFF6
FFEF
FFFA
FFFC
0002
FFF8
FFE9
0019
0006
FFFC
FFF1
0004
FFFA
FFD8
FFFC
FFEF
000F
000B
FFFB
FFE2
0005
FFF4
FFFB
0007
FFFD
0011
000E
0008
0003
FFFE
000A
0000
0002
000F
FFEC
001C
FFFD
0009
0007
FFE3
000F
FFED
FFFE
FFE7
0007
0002
0002
0010
0015
0003
FFFE
FFEE
0003
FFFF
FFFF
0001
FFFE
FFFB
0010
0004
FFF7
FFF9
000F
0000
000D
FFF4
0009
000A
000B
FFE6
0015
FFFD
FFF8
FFFB
0005
0004
FFDD
FFF0
FFFB
0001
FFF5
FFF8
000C
0008
FFF9
0006
000E
FFF6
0008
FFF9
0002
FFF9
FFFC
0009
000F
FFF6
FFFF
0006
000B
001D
000D
000B
FFEF
000B
0000
FFFB
0000
FFFE
FFF8
0000
FFFA
000B
0000
FFFA
FFF7
0010
FFF2
0002
0006
FFF4
FFED
FFFC
0000
000F
0007
0006
FFE8
FFFF
0020
000E
0019
000F
0002
0004
0009
FFF7
0002
FFFD
FFFD
FFEB
FFFC
FFED
000A
FFFE
0001
FFEC
000F
FFFE
FFF7
FFEE
FFD9
FFFB
FFFE
0015
0000
0013
FFEB
0006
FFFC
FFFF
FFE4
FFEF
FFFD
0001
FFF5
0007
FFEB
0003
000F
0008
FFEB
FFF5
FFFA
0000
000B
0013
FFF2
FFFA
0008
FFFA
0014
000B
FFEC
FFFA
0014
FFF6
0001
0001
0011
0004
0006
0015
0010
FFF9
FFF8
0006
FFFE
FFFA
001B
000E
FFFD
FFFC
0004
0009
0008
000C
FFFD
0001
FFFF
FFFE
0002
0003
FFF0
0002
0003
000A
FFFE
003C
0000
0004
FFFF
0010
FFFC
0002
0001
0007
0002
0001
0009
FFFD
0001
0002
0035
FFFC
FFFC
FFFF
FFFC
FFFD
FFFE
0008
FFFD
0001
FFE3
0002
FFF8
0009
000A
000B
0001
0009
0000
FFFC
0002
0007
0024
FFF8
0000
FFFF
FFF8
0000
FFFE
FFF6
000C
FFFD
FFF8
FFFA
0007
0003
0009
000B
FFFA
0007
0011
0001
0021
FFFE
0004
0004
FFF8
000D
FFD9
FFFC
0004
0002
001D
FFE4
0007
0002
0005
0003
0001
0002
FFFF
0006
FFFD
000D
FFFD
FFF4
0009
0003
FFFC
FFF3
0007
0001
000A
FFF7
FFFF
0004
FFFF
0000
FFFE
000C
0002
0006
0009
FFEB
0002
0004
FFFD
0012
0007
0007
FFFB
FFFE
FFFE
0009
0007
FFF1
0002
FFF5
0015
FFFD
FFFF
FFF8
0002
FFFC
0005
FFFF
0006
FFFD
FFFE
0002
FFFE
FFFA
FFFC
FFFB
0004
0008
0006
0001
0003
0001
FFFF
FFF4
0003
0002
0003
0008
0001
FFFF
0005
0007
0002
0000
0002
0000
FFFE
0002
001E
0006
FFF5
FFFF
FFF9
0024
0004
0010
000D
FFF3
0003
0003
FFFC
000A
0000
0007
FFFA
FFFF
0004
FFF9
FFF9
FFFA
0021
FFFE
FFF5
FFFA
FFFF
0005
FFF9
0000
0004
0008
FFFD
FFFB
0005
0010
0005
0002
000B
0004
FFFB
0004
0008
FFF9
0000
FFED
FFFD
FFF9
0008
0011
000D
FFFC
0001
FFFF
0004
FFFA
0005
FFFE
0006
0002
FFFA
FFFE
FFFF
FFFD
0002
FFF6
FFFB
0001
0003
FFFB
0002
FFFD
0002
0004
000E
0004
FFFE
0008
0012
0004
0002
000F
FFF8
FFFB
FFFE
0000
0008
0011
0003
0000
FFF5
FFFA
FFFD
0003
FFFC
0002
0004
0005
000B
FFFD
0000
0014
FFFC
FFF5
FFFB
FFEA
FFEB
FFFE
000A
FFFD
0013
0003
0017
FFFA
0008
FFFE
0002
FFFB
FFF4
FFFF
FFF6
FFF5
0004
FFF4
FFF9
FFFD
FFF1
FFF2
FFE0
0004
FFFB
FFFF
000D
FFF8
001E
0006
FFF4
0010
FFF5
0000
0002
FFFF
FFF4
FFFC
FFEA
0003
0009
0003
0000
0001
0015
FFF1
0009
0002
0008
FFFC
FFF7
0011
0002
FFF7
0018
FFE3
0007
FFDF
0001
FFE9
FFFA
FFF5
FFF3
FFEF
0004
0006
FFFB
0004
0007
0016
0019
FFF3
0002
0003
0000
0002
FFF0
0000
FFF0
FFFB
FFFE
0010
0013
FFFF
FFE0
FFF4
0001
FFFA
0000
0007
0005
000B
0001
0006
FFFF
FFF1
0000
FFFA
000A
FFFD
FFFE
FFFD
0010
0001
0004
0008
FFE8
FFF9
0008
0001
0005
0019
000C
FFFC
0007
0001
FFF6
FFFF
0006
001B
0012
FFF4
FFFD
000F
FFF6
FFF1
0005
0007
000E
FFFE
FFF0
FFFE
0011
FFE8
FFFD
FFF9
FFFD
FFFD
0000
000A
FFF2
0007
FFF7
FFF6
FFF1
0004
0001
FFF6
FFFC
0003
FFF8
FFEF
0007
FFFE
0012
FFF0
FFF2
FFFB
0000
0014
FFFC
0002
FFFF
FFF0
FFED
FFFD
0000
0008
FFF9
FFF2
0005
FFE7
0008
FFDE
0004
0000
0002
0010
FFFF
FFF4
0008
FFFB
FFFE
FFFD
000B
FFFF
0004
000F
0005
000D
FFFE
FFFD
0009
FFF6
FFE9
000E
0011
FFF3
000F
FFE2
000C
000C
FFFE
FFFF
FFF8
0004
FFF9
000B
000A
FFD6
FFFD
FFFE
FFF1
0010
FFE0
000A
0002
0000
0005
FFFD
001C
0006
0015
FFFF
FFFC
000B
000A
0001
0000
FFFD
000F
0004
0006
0013
FFFC
0010
FFF8
FFF3
FFE0
FFF5
FFE2
0002
FFF8
FFF5
0004
0003
0005
0013
FFF1
0008
000F
FFF4
FFF7
0000
FFFC
0007
FFED
FFF0
FFEF
FFF1
FFFD
FFEB
0003
FFDA
FFFE
FFFE
000F
0004
0000
0003
FFFC
FFFC
FFF9
0000
FFF4
000A
0018
FFE4
FFF9
0014
0007
0018
000D
FFFC
0005
0006
0003
FFDE
0002
0013
000B
FFFB
0001
FFFC
FFCE
0000
FFF0
0009
FFFC
FFFC
0000
0001
0008
0007
0004
0010
FFF9
000B
0001
001B
0003
0016
FFFD
FFF7
FFED
FFF1
FFF8
000E
0005
0001
0007
FFFD
000A
FFFF
0010
FFFD
FFFF
0017
FFF2
0002
FFE6
0004
FFF7
FFF2
FFFD
FFFF
FFFF
FFF4
FFF9
0002
FFF7
0004
FFF5
0007
FFED
FFEF
0003
FFF5
FFFC
FFE7
0002
FFF9
FFFD
0001
FFEE
FFEE
0000
FFFF
FFF4
000D
0003
FFF9
0003
0007
FFFF
0001
FFF6
000F
001C
0000
FFFB
0007
0004
FFEA
0001
000B
FFE3
000F
000C
000C
FFFD
FFFC
0001
000B
FFFA
FFFA
000A
FFFF
FFF5
FFFF
0012
FFFD
0011
000E
FFE1
0008
FFFA
0001
FFEC
FFFC
FFFA
FFF6
0002
FFE7
0007
0011
0000
FFFE
000E
FFF2
0002
FFF5
000D
000C
FFFC
FFF8
FFFE
FFF5
FFF7
0006
FFE4
0010
FFF7
FFF8
0013
FFFB
FFFA
FFFE
000F
0003
FFFC
0008
FFFE
0006
FFF3
0009
000D
0011
001B
000A
FFFE
FFFC
FFEE
FFF6
0011
0003
FFF8
FFFF
0017
FFE4
000C
0005
0005
FFFD
0005
FFF7
FFFD
FFFA
FFFD
FFFA
FFFE
FFFE
0007
FFFE
FFFA
0009
FFEE
0006
FFEE
FFFE
0012
0011
0000
FFF1
FFF6
0000
FFF9
FFFA
FFED
0004
0005
FFF0
FFF0
0008
000B
FFFE
0005
FFF2
FFEB
0001
FFF5
FFF4
FFFE
FFF1
FFE5
FFFF
FFFD
0005
0002
0005
0008
FFF9
0001
FFFC
FFFC
0000
FFF7
0011
FFFC
000C
FFFC
000E
FFF8
FFEE
FFFB
0010
FFFE
0004
0022
0007
FFFE
000F
000D
FFFE
000B
0001
FFFF
0019
FFED
0000
000A
FFF9
FFF8
FFF3
0010
0007
0005
FFF7
0000
0001
FFF4
FFFE
FFFE
0010
FFF7
000E
0011
0003
000B
0005
0001
000A
0009
FFF6
000C
0006
FFF8
0006
0008
FFEE
0005
000F
0016
000C
0007
FFFC
000F
FFF4
FFF9
FFF5
0001
FFF7
0010
FFED
0007
0012
0012
0006
0004
0000
FFEA
0005
0011
FFFE
0013
0004
0000
FFFF
0007
FFEA
FFFB
0009
FFFC
0019
001C
0004
FFF7
000B
000C
FFFE
0011
0001
FFF6
FFED
FFF9
FFEC
FFFF
FFFB
000A
0003
000F
FFFA
FFF0
FFF3
FFF1
FFEC
FFF8
0009
FFF5
FFF4
0006
0005
0001
FFFB
FFF6
0007
FFFA
0006
FFF2
0009
FFFA
FFF9
0012
FFE8
000D
FFE2
0008
FFFC
0014
FFFB
0000
FFF9
0015
000E
FFF9
0011
FFF7
FFFB
FFF8
000D
0002
FFF8
FFFC
FFE0
0007
FFFD
FFF6
000F
0017
001D
0000
000D
0005
000C
0015
000D
0001
0001
FFF9
FFF8
FFFC
0002
FFEB
0005
0009
FFFF
FFE1
000C
FFF1
0005
0001
0006
000A
000B
FFFE
0017
FFFC
FFF3
FFF9
FFFB
FFF9
0015
FFED
0001
000C
000D
FFF8
FFF3
FFFE
000A
FFF2
FFFB
FFFE
FFEF
0004
000A
FFF7
0007
FFF9
FFFB
FFFA
0016
FFF9
FFFA
0001
FFFC
0002
FFFF
000C
0005
FFEC
FFF9
0011
FFFF
FFFD
FFFA
FFF5
FFF4
FFFF
0005
FFEE
0016
000F
0001
000F
0008
0007
FFFB
FFE9
FFF9
FFEF
FFF2
FFFB
FFF4
0002
0000
FFFA
FFF9
FFEA
FFEB
0001
000E
0006
FFFE
FFFC
FFF4
0002
FFF8
FFFA
0006
0004
0006
0000
FFFB
000A
0008
0011
0005
0007
0012
0005
FFF9
0002
FFFB
FFE8
000F
0001
FFED
000A
FFF7
0003
FFF8
FFEF
0006
0011
0006
000F
0003
FFFA
000A
0000
FFFC
000B
0001
FFEC
001B
0000
FFF4
FFE5
FFF9
0000
0011
FFFE
0009
FFFF
FFF9
FFED
FFFC
FFDB
0004
000C
0004
0010
0006
0001
FFE6
FFEF
FFEB
FFF1
001E
FFFD
0001
0013
FFF7
0014
FFFC
FFF4
FFF8
FFE9
000E
0007
FFE8
FFFF
0001
FFE5
0002
0007
FFF0
FFFD
0012
FFF3
0011
0003
0009
FFFA
FFE5
FFEB
FFFD
FFFE
FFF0
FFF5
FFFB
0010
0001
FFFD
000B
0009
000A
FFF9
FFF1
0015
0004
FFF5
0001
0009
FFF8
FFFA
0012
FFFD
0002
000D
0006
FFF9
0003
FFFA
0011
FFF8
FFF4
FFF7
0010
FFF1
FFFE
FFD8
FFFE
0006
FFFD
0004
0003
FFF1
FFF0
FFFE
FFFD
FFF9
000A
FFF8
0006
FFE8
FFF6
FFFA
0008
FFFC
0009
0006
FFFC
0007
FFEA
FFF5
FFFE
FFF6
0013
0002
0002
FFF5
FFF4
FFFF
0006
000F
0011
FFFA
0003
0001
FFE6
FFF6
FFFD
FFE6
FFF1
0003
FFE9
0001
0000
FFFC
FFFE
FFFD
FFEC
000F
0008
FFFB
FFF2
0007
0009
FFF4
000F
FFF5
0003
0004
0010
FFFC
0004
0013
000B
FFF2
0008
0007
FFFC
FFEE
0006
000E
FFFC
FFF7
000D
FFEB
FFE5
0002
FFF4
FFFD
FFE4
000D
FFF0
001D
0011
FFFF
0006
FFF5
FFEA
0011
000E
000B
0002
FFFC
000B
0006
FFF1
FFFD
FFF6
0004
0000
FFFE
000C
0009
FFFA
FFF3
FFF6
0005
FFDC
FFFD
FFF4
0002
FFFF
FFF3
FFF3
FFF8
0005
FFFD
FFF9
0000
FFF3
FFE7
FFE1
0001
0013
000E
FFEA
FFF8
0006
FFF6
FFFA
0002
FFFC
FFFC
FFF5
000C
0001
FFF9
FFF3
000F
0006
000C
FFFD
0006
000B
0013
000E
0010
0009
FFF8
0000
0014
0005
0006
000D
0007
0002
FFE9
FFEA
FFF4
0017
FFF3
0000
0007
000F
0002
0009
FFEC
FFF8
FFF0
FFFB
FFFC
0003
0001
0007
FFF8
0008
0016
000C
FFFA
FFF7
0007
0005
FFD7
FFF5
0000
FFDF
FFE9
0016
FFFC
000F
0005
0004
FFD4
0014
FFFB
0005
FFF6
0020
FFFF
FFEC
000B
000C
FFEE
0004
FFE4
FFF6
0014
0006
FFFD
FFFC
0004
FFFA
FFF7
FFFD
0014
0008
FFF2
FFFC
0003
0028
0005
FFFD
FFFD
0006
0004
000B
0002
FFE8
0018
FFE9
FFFF
0006
FFF5
0006
0004
0007
0017
000B
FFFE
0009
FFE3
FFF2
0002
000D
0024
FFF0
0004
FFF6
0004
FFE3
FFF8
0001
000C
FFFD
0007
FFF1
FFFE
0006
0016
FFE8
000B
0000
0005
0010
0000
FFF2
FFFA
001B
FFF9
0019
001F
000E
000B
0008
FFFD
0003
0019
FFFA
0009
FFFD
0000
FFF3
0000
FFFD
0000
000B
FFF9
FFF3
0002
0005
0009
FFFF
FFF9
000C
FFEF
000F
FFFA
FFDE
FFFF
0009
000B
0009
FFFA
001C
0011
0015
0005
0003
0010
0003
FFF0
000E
FFE5
0004
0007
FFF8
FFF7
0001
FFFA
FFF0
0001
0002
0001
FFF2
FFFD
001D
FFFD
000C
000B
0000
FFD6
0004
FFFE
0004
FFFB
000F
000E
0021
FFF4
FFF5
0000
FFF5
0006
0010
FFEF
FFFD
0010
FFF0
FFF1
FFF4
0003
0006
0002
FFF3
000E
FFFF
FFFC
000E
FFE5
0004
FFF9
001F
0009
0001
FFF1
0002
0013
000B
0004
0012
0007
000B
FFF7
0004
0009
0010
FFFB
FFFE
000C
0003
FFFD
0009
FFFF
FFFA
0001
0003
0004
FFFD
000F
000C
FFFB
FFFB
0010
0001
FFEC
0001
FFFC
FFEF
0004
FFED
000E
FFFA
FFFC
FFEF
FFF9
FFFC
FFF6
0007
FFEE
FFDF
FFF8
FFFA
FFE6
0003
FFFD
FFF4
0007
FFF5
FFEF
FFFC
FFF4
FFFC
0019
FFF7
0000
000D
FFE8
FFFE
FFEE
FFF6
FFFB
FFFA
FFFA
0007
FFF6
0009
FFF6
0008
0002
000F
FFF1
FFFF
FFFA
0012
FFE8
0019
0001
0001
0000
FFE2
0009
0002
000C
FFE8
FFFC
0003
FFF5
0016
0004
FFF3
FFFE
0008
FFEF
000A
0001
FFFA
000B
FFEF
FFF8
0002
FFF0
0009
0001
000A
0000
0016
FFEE
0001
FFF8
0003
FFF3
FFF6
FFFD
FFFA
FFF8
FFF8
FFFA
FFFB
FFF5
FFFC
FFFE
FFF8
0002
FFF5
0005
FFF4
FFFF
FFED
0016
0009
FFFA
0006
FFFE
0010
0008
FFEE
0002
0005
0007
FFFE
000A
000E
FFF6
FFEE
FFFF
FFF7
FFF3
0006
FFE8
0002
0008
000A
FFFA
FFF5
0001
FFED
FFFF
FFF7
FFFB
FFFC
FFF4
0005
FFEA
0002
FFFE
FFF8
FFFE
FFFA
FFFD
FFE3
FFF5
000C
FFF0
0009
FFF8
000C
0004
0003
001A
FFEC
FFF8
001B
FFFC
FFF2
0012
FFEF
0006
FFF4
000D
0008
0020
0006
FFF5
0011
FFF5
0003
FFF4
0008
FFEB
0002
FFED
FFFD
FFFB
FFFD
0005
FFFA
FFFD
FFF8
FFF0
FFEF
0006
0008
FFF4
000C
0002
FFEE
FFF8
0000
0002
FFFE
FFF9
FFF8
FFF0
FFF9
FFF7
FFF6
0005
FFFB
000C
FFFC
0023
FFF0
FFFE
000E
0011
FFFA
FFFB
FFF5
0008
0004
0005
000B
FFF9
0013
0005
FFF9
0009
002A
FFF7
0007
000A
0000
0022
0011
FFFE
FFFB
FFFA
0001
FFF4
FFF4
FFF6
0003
0009
0001
000C
FFFE
FFFC
FFF7
0008
FFFD
FFFA
0007
0007
FFFE
FFF6
000A
FFFF
FFE6
FFFA
0008
FFF6
FFFD
0014
FFFD
FFF4
000A
0009
000E
0006
FFFA
FFF4
001B
0007
0006
000E
0007
FFF9
FFFF
0005
FFF3
FFFD
FFFB
0000
000C
FFFC
FFEE
FFFB
0009
FFFA
000A
0001
0009
FFFE
0002
0009
0013
FFFF
0001
0002
000E
0019
FFF6
0005
FFFA
FFFA
FFF9
FFFF
0000
001D
FFF3
0007
FFF5
000B
0003
FFF0
0006
FFFB
FFF6
0005
0010
FFF3
0005
0000
0006
0011
FFF4
0004
0002
FFE9
FFF7
0002
0007
FFFD
0003
0007
0005
FFFF
FFFA
0001
0009
0001
FFF6
0008
0003
0007
FFFC
FFF0
0004
FFEA
FFF9
FFED
0007
0010
0000
FFF2
FFFD
0006
FFFC
0009
0011
FFF9
0002
0008
0006
FFFC
FFF4
0019
FFFE
FFF1
0016
0001
000D
0001
FFED
0000
000F
0006
0016
0005
FFF6
0003
0009
FFF8
0012
FFEE
0001
FFF2
0001
000E
0005
FFFB
0004
000F
FFF6
0003
FFFD
FFF8
FFFC
000A
0005
FFFF
FFFD
0005
FFFF
000D
FFE5
FFDF
000C
000A
0017
0003
FFDF
FFFE
000E
0008
0009
FFF9
FFFB
FFE4
FFEF
0017
0000
000B
FFFE
0004
FFEE
FFEE
0017
0004
FFF6
000F
0008
0000
FFFF
FFF7
0001
FFFD
0010
FFFE
FFF4
0018
0009
0004
0009
FFF3
0006
FFF2
0009
0016
FFFF
0005
0006
0003
0009
FFFC
0000
0001
000D
FFF5
0000
FFF5
FFFB
0005
0003
FFF2
FFEF
FFF9
0003
000C
FFF2
0012
0010
FFF0
FFF1
FFF6
FFFC
FFF8
FFFE
0002
FFFA
FFE1
FFFD
0012
FFFC
FFFF
0008
0004
0009
0001
001D
FFF6
0007
FFFD
0002
0004
FFFE
FFFB
0007
FFFB
0005
000D
FFF6
000E
000A
0001
0006
0009
FFFB
FFF2
0007
0006
FFEB
0012
0001
FFFF
0023
FFFB
FFF8
FFF9
000A
FFF9
FFFD
000D
FFF3
FFF7
FFF3
0000
000A
0003
0000
000F
FFF8
FFED
FFF3
0006
0000
FFF1
0011
0006
FFEC
FFF9
FFFF
000B
FFF1
FFFA
FFF6
FFF5
FFED
0000
0008
0007
0000
000A
FFFE
FFF1
0001
FFFD
FFE4
0014
0005
0005
0016
FFF8
0011
0000
0003
FFF8
000B
0001
FFFE
FFFB
0009
0005
000A
000C
FFFA
FFF5
0006
0008
0008
FFF0
0000
0002
0007
0003
0004
0012
FFFC
FFEE
000B
0006
0016
000D
000B
FFEB
0005
0009
FFFD
0009
0002
0011
000F
0004
0001
0003
FFEE
000F
000C
0008
FFEC
0013
FFFB
FFED
0006
0010
FFF4
0013
0010
FFFD
0014
FFF4
FFFD
FFFF
0003
0004
FFF8
000F
0002
FFFC
0006
000F
0006
0012
0000
0007
0004
0009
FFF4
0002
0008
FFFD
000D
FFFE
0013
FFE2
0002
0008
0003
FFFD
0008
0008
FFF8
FFEF
FFFE
0000
0009
000E
FFFD
0003
000A
FFFD
0010
FFF6
FFE3
0006
000B
0004
FFFA
0001
0005
FFFA
0006
FFF2
FFFF
000F
0006
0003
0002
FFFF
FFF5
FFE8
0000
FFF0
FFF6
FFFE
FFEA
0007
0013
0007
FFFB
0004
FFF9
000A
FFF1
0014
FFF5
FFEE
0006
000B
0006
FFF8
000F
FFFB
FFF8
0007
FFFC
0000
0012
0000
0014
0005
FFFB
0007
FFFA
0004
FFF9
FFF6
0008
FFF9
FFFD
0010
0006
000B
0006
FFF6
0008
FFF8
0001
000D
FFF4
0009
FFE6
0001
FFE2
0008
FFF5
0009
000A
0003
0000
FFF9
FFF3
FFE9
000B
0001
0002
FFEF
FFEE
000D
0007
0006
FFEF
0012
0003
FFFE
0006
FFEF
0001
FFF7
FFFD
0000
FFEB
FFFA
FFF3
FFF3
FFF5
0008
FFFB
FFEF
000C
0008
0020
FFFF
0010
0004
0007
FFF8
FFF8
FFF1
000B
0013
0008
0004
FFFB
FFF5
FFF8
000F
0007
FFF1
FFFE
FFFE
FFF2
FFF6
FFFB
FFFB
FFF4
FFFD
FFF9
FFF5
FFF2
FFED
0007
001B
0001
000B
FFE9
FFF7
000B
000E
000C
001D
0014
FFFA
0010
0009
FFF4
FFE0
0008
0008
FFFE
FFFA
000D
FFEF
0002
0003
0019
0016
FFFB
FFFF
0003
FFEB
FFF5
0003
000E
000B
000A
0000
FFFF
0003
000F
FFFA
0005
0010
0001
000C
FFFC
FFFE
000C
FFF3
000A
0014
FFF2
0014
0007
000D
0009
000E
0019
0009
0001
FFF7
FFE6
FFF8
000E
FFFC
FFF8
FFF8
FFFF
0002
000B
0002
0017
0003
FFF6
0014
FFDF
FFF9
FFF9
FFF1
000A
000F
FFEE
FFE8
0013
0006
FFFC
0012
0007
0009
FFFF
FFF1
FFFF
0005
FFF5
FFF2
FFEA
FFFA
000E
0001
0008
0006
0008
0008
FFF2
0001
001A
FFEF
0000
0010
000C
FFF3
0001
FFF4
FFF9
000B
000D
FFF3
FFF4
000E
FFF8
FFFD
0005
000B
FFFF
FFEE
000C
FFFC
0009
000F
FFF6
0028
0001
0007
FFF2
000F
FFFD
FFF7
0002
0005
FFF8
0009
0008
0010
0016
0007
FFE9
000D
0011
000E
FFF9
0007
000A
000C
0008
0000
FFF2
FFF9
0001
0008
FFFD
0004
0001
FFF8
0002
FFFE
FFFB
FFFE
0001
FFF2
0004
FFEA
0005
FFEB
FFF8
0008
000A
0002
FFFA
0006
FFED
0015
FFFC
0000
FFF7
000C
FFF8
0016
FFEA
FFFD
FFE7
FFF7
FFEC
0014
0002
FFFD
000A
FFFF
FFFE
000E
0003
0010
0014
0000
0011
0000
0003
FFEB
FFFF
0007
0002
FFF5
000E
FFFA
FFF8
0000
0001
0011
0016
0007
0006
0001
0009
FFED
FFF9
FFF5
FFEF
000C
0005
0013
0000
FFFB
0000
FFF5
FFF7
0014
FFF7
FFEC
FFF5
000C
0009
0008
FFFC
0001
FFFA
FFF8
FFFA
FFFE
FFF0
FFF2
0011
FFF5
0002
0001
000A
0008
FFFD
FFFE
0006
000B
FFFB
0013
FFFF
FFFD
0008
0000
0002
000C
0001
FFF9
FFF4
0009
FFFA
0004
0004
FFF8
FFEB
FFD6
000C
FFE7
FFD7
0009
0007
FFCE
FFF5
FFFE
0002
0012
0016
FFEB
FFEC
0001
0004
000A
0003
FFE5
FFFF
0002
FFEA
FFFC
FFFE
0001
0001
FFFB
0005
FFFF
FFFB
0010
FFFB
FFFF
FFFE
FFFE
FFFC
0008
FFF8
FFD8
0007
0009
FFFA
FFFD
0006
FFF7
0005
0001
FFF3
FFFD
FFF9
FFFE
0002
FFF9
000B
FFFD
0008
000F
FFFB
FFF1
0004
FFFE
0012
FFFC
0003
0007
FFE9
FFF8
0004
FFFE
0001
0007
0019
0004
FFFD
0001
0009
0008
0001
FFFD
0003
000A
FFF5
FFFD
0012
FFF7
FFFA
0003
0000
0004
0013
000A
FFEB
0005
FFF0
0007
FFEA
FFFE
FFFD
FFFF
0003
FFF0
FFED
0003
0000
FFFB
0001
FFF2
0005
0012
FFFF
0008
FFF9
0003
0004
0021
0008
0003
0006
0006
FFF4
0005
0010
0002
FFF7
FFEE
0002
0000
FFFC
FFF0
0009
FFF5
000F
FFFF
FFE0
FFFB
0024
FFFF
000D
0000
FFF4
FFFB
FFF2
0007
FFEB
FFF8
FFF9
0006
FFF3
0007
0003
000A
0017
FFFB
0003
FFFF
FFFA
0001
000B
001B
000E
FFF7
FFFB
0009
001F
FFF7
FFF9
0002
0000
FFFD
0010
FFF8
000A
0012
0006
0003
FFFB
0001
0001
FFE8
FFF3
FFFF
FFF7
0000
FFF4
FFF5
0003
000D
FFFB
FFDE
0003
FFF5
0007
0003
0005
0005
0002
FFFE
FFF9
FFF8
0009
0013
000B
FFF8
FFF7
FFFD
FFE6
FFE0
FFFB
0006
0001
0016
0007
FFFD
0008
FFF5
FFFA
FFF4
000C
0005
0004
000F
0007
FFFE
001A
FFF9
FFF5
0004
0007
0002
000D
000E
0010
FFFE
FFFE
000A
0014
001C
0005
0004
FFF9
0005
FFFF
FFFD
FFF0
0001
0006
FFFB
FFF2
FFEB
000A
FFFE
FFF7
FFF9
0001
FFFB
0002
0007
0005
0001
FFF6
FFED
FFFF
000B
FFFF
FFF5
FFF3
000A
FFF7
0002
FFFA
0007
0011
000E
0005
FFF6
000F
FFFA
FFFF
FFFA
FFFF
FFF8
FFF7
FFF8
FFFE
0000
0005
0004
FFF8
000E
0003
FFFF
0004
FFF8
0007
0000
FFFF
0017
FFF8
FFFE
FFEC
FFF5
001C
0006
FFFE
0003
0004
0001
FFF9
000E
0000
FFF6
FFEB
0009
FFF2
0000
FFFA
FFFD
FFF7
0002
FFFF
0008
0012
FFF4
FFEF
0002
0000
FFF5
0010
0004
FFF1
FFF2
FFEC
FFFD
FFFF
0014
FFFC
FFFA
0015
FFFB
000B
FFEF
FFF4
FFF8
0000
0010
0008
FFFC
FFF7
FFEF
0015
000D
FFF2
0001
FFFE
0009
0001
FFF6
FFF7
FFFA
0014
FFFA
FFF2
0003
0002
000E
FFFF
FFF4
0004
000B
0002
0011
0010
FFFA
0003
FFFE
FFFE
0004
0008
0004
FFF6
0000
0008
000A
FFF9
FFFC
FFFE
0007
FFEB
FFED
000B
FFEA
0009
0008
0014
000A
0011
0018
FFF9
FFE9
000F
FFFF
FFF9
FFFE
000B
FFF9
FFFF
000B
0001
0017
FFFE
FFF6
0001
FFFB
000F
0000
0008
FFD8
0000
000B
000E
FFF4
0000
000A
FFEB
FFFB
FFFC
0004
0007
0000
FFEC
FFF0
FFFF
FFFD
0001
FFF8
0002
0003
FFFF
0001
0017
0006
0009
0005
FFFD
0002
FFF3
0002
000A
FFFC
FFE6
0011
FFF7
0005
0003
0019
0001
0003
0001
FFFF
0008
0002
000D
0000
FFFA
0000
0003
FFF8
0007
FFF7
FFFD
FFF9
FFFF
FFFD
0002
FFFF
0000
0000
0002
FFF3
0007
0015
0002
FFFD
0003
000D
FFEB
FFFD
FFFF
FFD6
0002
0004
FFFD
FFFE
0008
FFF6
FFFE
0007
0002
FFFA
0009
0004
001F
0009
FFFA
0007
FFFA
FFEB
FFFB
FFF4
0003
0004
FFFC
0004
FFF6
0000
0017
FFFE
FFF7
000B
FFFE
FFFD
0006
0005
0006
FFFB
0003
FFF3
0003
FFFB
0003
0005
000F
0003
FFF9
0000
FFFF
FFFA
FFFB
0009
0011
001D
FFFC
FFF8
FFEC
0026
FFF9
FFFF
0017
FFF8
0009
FFFE
FFD8
0009
FFFC
FFFB
0002
0003
FFFD
0001
0004
FFFA
0010
FFFE
FFFF
FFE8
FFFC
FFFE
FFFC
0001
0009
0000
FFFC
0010
FFF2
FFFD
0003
0004
0001
FFFD
0006
FFF8
FFF9
FFF6
FFFE
0000
0000
0005
0001
0005
0000
FFF2
FFFF
FFFA
0001
FFFA
FFFC
FFFB
FFFB
0007
0003
FFF7
FFF5
000B
FFEF
0003
0004
FFFD
0002
0005
FFFE
0008
0000
FFFE
0001
0000
FFFC
0003
FFFE
FFFE
FFFE
FFF4
FFF9
0000
0007
FFFC
0000
FFFB
FFFA
0007
FFF9
FFFA
FFFF
0007
0007
0003
0009
0004
0000
0006
FFFB
0000
FFFF
FFFF
FFF7
0004
FFFB
FFE7
FFFA
0001
FFFC
0004
FFFC
0001
0000
000A
0002
FFFF
0000
0004
FFDD
0001
0004
FFFA
FFFF
FFF6
000E
FFF8
FFFD
FFFD
FFFC
FFFB
0001
0000
FFFE
FFF8
FFFD
FFFD
000B
FFF9
FFFC
0001
FFFB
0011
FFFD
0001
0002
FFFD
0001
FFFA
FFFF
0009
0003
FFF9
FFFD
0003
0005
FFFD
FFF4
0005
FFF7
0012
0000
0001
0001
0009
FFFE
FFFF
0001
0039
FFFA
0009
FFE9
FFF6
FFFC
0009
FFFB
FFF3
FFE1
0004
0000
FFF9
0021
000B
FFF8
FFF5
FFF2
FFFD
FFF8
FFFC
0009
001C
FFFB
FFF5
000A
FFF6
000A
FFF4
FFFB
FFFF
FFF6
0006
0001
FFFF
FFF6
FFF8
FFF1
0004
FFFC
000D
0006
FFFF
FFF0
FFFF
FFFF
0004
0000
0000
FFF8
0000
FFFB
FFF9
FFFD
0000
0012
FFFF
FFF6
0003
0006
0002
FFF9
FFE8
000D
FFFF
000A
FFEA
0002
FFFC
FFFF
000B
FFE4
0019
0003
FFF7
FFF9
000F
0016
FFE4
0001
FFFD
FFFC
FFF8
000D
000F
0004
000A
0008
FFFA
FFFE
FFF6
FFF2
0002
FFF4
0004
0001
000E
FFED
0011
FFFB
0007
0010
FFF9
0001
001A
FFF9
0007
0011
FFFB
FFFB
FFF5
0002
000C
0003
0001
000E
FFF3
FFF7
0012
FFFB
0006
0007
FFFF
FFF3
FFDE
FFEF
FFFE
FFEE
FFFF
0017
FFFC
0001
FFFF
0017
0000
FFF7
0013
0002
000E
0003
0004
0003
0011
FFFB
0011
FFF6
0008
0003
FFFF
FFF4
000C
0000
FFED
FFF0
FFEF
0009
000F
001A
0015
FFF6
0008
FFFB
FFFD
000A
FFF4
FFFA
0004
0001
0006
000E
FFF7
0003
FFEA
0006
FFF8
FFFD
FFFC
FFFE
FFFD
0008
FFF7
000D
FFFA
FFEE
FFF8
0006
FFF6
0002
FFF7
FFDC
0001
FFF8
FFFD
FFF3
0001
0001
FFFF
FFF0
0002
FFF8
0003
FFFD
FFF4
FFFB
000C
FFE7
FFF7
0007
FFFE
FFF7
FFFB
0007
0019
FFF3
FFEE
0000
FFF2
FFF0
000C
0005
0000
FFEE
0001
000A
FFF3
FFFD
FFF6
000F
0010
FFFE
0005
0006
FFE7
0006
FFF6
FFFB
FFF9
FFF8
FFFA
0005
000E
FFF7
0003
FFF9
FFF6
0007
0008
0006
FFFE
0002
FFEE
0001
FFE5
0002
FFFA
0006
0004
FFF7
0004
000C
0004
0005
0015
0000
000C
000C
000E
FFFC
0003
FFEA
0007
0001
FFF4
0011
0004
0000
FFED
0005
FFFD
0006
FFF2
FFFB
FFFF
0004
0018
FFF3
0000
FFF6
0017
0006
0009
0015
0002
FFF6
0005
FFF8
FFFC
FFD9
0000
FFFF
FFF6
FFF5
0007
0002
0008
0001
0003
FFFB
FFFF
0008
000D
0014
FFED
FFF9
0011
0018
0005
0004
003E
FFFD
FFFE
FFFF
001A
000F
FFF6
FFF9
FFF8
000D
FFF0
FFF9
FFFD
FFFA
0005
0006
FFFE
0003
FFF9
000C
000C
000F
000A
000A
FFFD
000A
0007
0008
0005
FFF9
FFFF
000D
0001
FFFD
002E
FFF8
FFF5
0000
FFF8
FFFA
FFFC
000F
0008
0003
0007
FFFC
FFFE
0002
0003
0008
0002
0008
FFF5
0004
FFF4
FFF3
FFE7
001A
FFEE
0005
0007
0000
000A
FFF5
0006
0001
0016
0009
FFFD
FFE5
FFEF
000D
0004
FFF4
0008
0017
FFF5
FFFB
FFF8
0005
0001
FFFA
FFFE
FFFD
FFFE
0010
0009
0006
FFF6
0003
000A
0008
0006
FFFA
0014
001C
FFEB
FFFD
FFEC
FFF7
FFFF
FFEB
FFF6
FFFA
FFFF
0016
0004
FFF1
FFD7
000C
FFEE
FFFF
FFFF
0007
FFFA
0004
0028
0013
0009
000D
0009
FFFA
FFFE
FFFB
FFFA
0008
000F
FFEA
000F
0009
001D
FFFC
0000
FFFE
0004
0011
0007
0007
FFE1
0000
FFED
0006
0004
FFFA
0002
FFFB
000F
0006
0001
0018
FFF8
000C
FFF7
FFF5
0001
FFEF
FFE4
0005
0002
FFF7
FFFF
0003
FFFD
001B
FFFD
FFF9
FFFE
FFFF
0002
FFF8
0021
0005
FFF5
FFEC
FFFF
0005
001C
0003
0008
FFF3
FFE9
0005
FFFE
FFF7
FFFD
FFEE
FFF9
0006
0003
FFE9
0000
FFFD
0004
0015
FFFC
0009
0000
000E
0009
FFFF
FFFA
FFE3
0014
0022
FFE7
FFEC
0008
FFF8
FFDC
0003
0000
FFFA
FFF1
FFE8
0001
0005
0005
0004
FFEC
FFE5
FFFA
FFF7
000E
0007
FFEA
0004
FFF6
000D
000F
FFF3
FFFB
0000
0008
000A
FFE9
0001
0002
FFF8
FFF2
0000
0005
FFF7
FFFE
0001
0010
000C
0010
FFF9
0008
0001
FFFF
FFED
000E
0003
0002
FFFE
FFF8
FFF3
000B
0004
FFF0
000F
FFFC
FFF9
0010
000E
000B
FFF7
0001
FFF8
0000
001F
FFFD
FFFF
FFF5
FFFA
FFF9
0001
0012
0005
0006
000D
000B
FFFD
FFF4
0005
FFFE
FFE8
FFFC
0003
0000
000A
001A
000B
0012
FFFE
FFF4
0004
FFFB
0007
0009
000A
0000
0002
FFF9
FFEF
0002
0007
0005
0009
FFF5
FFF7
0008
FFEE
000D
FFE7
0015
FFFA
FFF0
FFF0
FFF6
0003
0003
FFFB
000D
FFF1
FFFE
FFF8
000D
0008
FFEA
FFFD
000B
FFFC
0002
FFF4
FFF5
FFF2
FFFA
0012
0000
0009
0008
0007
0005
0005
0006
0000
FFF8
0001
0016
FFFB
0015
FFF6
0014
0009
0000
FFFC
0013
FFFD
0004
0005
0008
0014
000B
FFF0
000D
0001
FFF3
000F
0005
FFFF
0000
FFFC
0000
FFEF
0008
FFEF
0002
0003
FFFF
000A
FFF2
000C
0001
FFF2
FFF7
000B
0001
0006
0000
FFFF
0002
FFD3
FFF0
0004
FFFD
000C
000D
FFF0
0001
FFF9
FFFF
0002
FFFC
FFFF
0015
0000
0004
FFFC
FFF4
0011
FFE4
000F
000D
FFFA
0012
0004
FFFA
FFF5
FFFE
0001
FFED
0010
0008
FFEB
FFF4
0015
FFFF
000F
0004
FFF7
FFF3
0002
0003
FFFD
FFF3
FFF3
000A
000D
0008
0002
0009
FFFE
000E
FFFF
FFE9
0002
FFFF
0000
0005
FFF7
FFFD
FFF2
FFEE
FFF8
0010
0008
FFE3
0017
FFF6
000D
FFEC
FFF2
0003
0007
FFFF
FFF4
0001
0013
0003
0014
FFF2
0009
0009
0005
0015
FFF6
FFF7
0006
000A
FFFC
0003
0004
FFFC
FFFB
FFFF
000A
FFF5
FFEC
FFF9
FFEC
000E
000D
FFFB
FFF4
FFF6
FFFD
FFFF
0005
0009
0002
0002
0015
FFEB
0015
FFF1
FFFF
FFFC
FFFC
FFF9
FFF9
FFFB
FFF9
0005
FFE3
FFF9
FFF5
0002
FFF8
FFFA
0007
0009
FFF9
0005
0001
0020
000B
0018
FFFA
0009
FFF0
FFF6
FFF0
0011
FFF3
FFE8
0003
FFF6
FFF9
000C
0004
0000
FFFF
000C
FFFF
FFFF
FFF7
000C
0007
FFF5
FFF6
0013
FFDE
FFFD
FFE9
FFF4
FFF0
FFFB
FFFD
FFE4
0001
0012
0001
0002
FFFE
000E
FFFC
FFFC
000F
0003
FFF9
0003
001B
FFF6
000E
0016
FFFD
0006
0003
FFFF
0014
FFF4
0005
FFE8
0019
0000
0007
0000
FFFF
0001
FFF7
FFFB
0006
FFFA
FFFC
FFFC
0002
FFF1
FFF6
0006
FFE8
FFF4
FFEA
0005
0002
FFF1
FFFC
000B
0006
FFFB
FFF3
FFF9
0017
FFFA
0006
0007
FFFD
0000
FFF3
000A
000B
0001
FFF3
0013
FFE4
FFF4
FFEA
FFF4
FFFE
FFF8
FFF8
0001
0008
0007
0012
000A
FFF7
FFF7
FFFE
FFFE
FFFA
FFF3
0001
FFEB
FFF6
0003
0001
0003
0008
0001
0006
0004
FFE0
FFFB
000C
FFFA
0002
FFFF
0010
FFFF
0000
FFF5
FFFB
0001
FFFA
FFE7
FFFA
0006
0005
0002
FFF3
FFED
000B
0007
FFDD
FFF5
0004
000E
0009
0013
000A
0005
0007
0007
FFF7
0005
000A
FFF6
FFFA
001A
0004
FFFF
FFF9
FFF6
FFFE
0007
FFFF
0017
FFF6
0004
000C
FFF8
FFFE
000D
000E
FFFF
0017
FFF5
FFFD
FFFA
FFF5
FFF8
FFFC
FFFC
FFEB
FFF3
0003
000A
FFF3
0013
0006
0015
001D
FFE9
FFFC
0009
FFF1
0006
0009
FFED
0006
FFF7
FFE2
FFF9
0015
FFE8
FFFA
000D
FFFC
0007
FFEE
FFFA
000D
0009
000A
FFE1
FFF2
FFF5
FFFF
0006
0007
0004
0009
0005
0001
0005
0006
FFFB
FFF2
000D
0000
FFF3
0003
FFFD
0007
0016
0002
0006
FFF2
0001
FFF8
FFF8
FFF9
FFF7
FFEB
000C
000C
FFFF
0006
0000
0001
FFEB
FFF0
FFF5
FFFD
000D
0003
000A
0001
FFF6
0003
000D
0009
FFF7
FFE4
0001
FFF9
FFFF
FFF4
FFFE
FFF7
FFE4
FFFE
FFEA
FFFC
0010
FFFD
000C
000D
FFF0
0002
FFF8
FFF8
0008
0001
0007
0012
FFF5
FFFE
0004
FFF8
FFFC
FFF8
FFE6
FFFD
FFFB
0011
FFEF
0005
FFF4
FFF6
FFF3
0003
0003
FFF1
FFF9
FFF3
FFE8
0007
FFF8
000C
0007
FFFB
0004
0001
0003
FFE2
FFFA
FFEE
FFF5
FFF3
FFF4
0007
0003
0006
FFE5
0002
0001
FFF4
0008
FFE7
0005
0004
0008
FFF5
0012
FFF6
0001
0008
0003
0014
0002
0006
FFFC
0014
FFFD
0007
FFF8
FFF6
FFF5
0001
000A
0003
FFE0
0009
000A
0015
0005
FFF3
FFF8
0004
FFF6
FFF4
000A
0001
0007
0002
FFF2
0013
FFFE
0004
0007
FFE1
000C
FFEB
0005
0002
0003
000A
0008
000A
FFF9
FFFF
FFFF
0003
0007
0012
000A
0015
FFFF
FFF6
FFFF
0008
FFF2
FFF9
FFF9
FFFF
FFF4
0007
001E
0000
FFF4
FFFC
000C
0002
FFFF
0004
001B
FFF6
0018
0013
0000
0006
000C
0001
0002
0010
0020
FFF5
0000
FFFF
000B
0001
FFEF
FFFB
0012
0010
000B
0002
0005
0007
FFF9
0003
000B
000A
000D
FFFC
0002
0008
FFF6
FFFB
0004
FFFF
FFE9
FFFC
000D
0001
0000
0024
000F
FFFD
FFFA
0007
0005
0004
FFE0
FFF6
FFFA
FFFD
0003
FFFA
000A
FFFE
0003
FFFF
FFE9
000E
0002
FFF9
0013
0005
FFF7
0004
0008
000F
0003
0005
FFF8
FFF4
0009
0003
0006
FFF4
0006
0003
0002
0006
0010
FFF8
FFF5
FFF4
0003
000E
0015
FFFF
000A
FFF7
000D
FFF6
0003
FFFD
001D
FFFD
000B
FFFE
0004
FFF9
FFF6
FFFA
FFF9
FFFB
0004
FFFC
0000
FFFC
000E
001B
FFE8
FFFA
FFFC
FFFF
FFFF
0009
0003
0006
0002
0004
0006
FFF3
0014
0004
000C
0013
0006
FFF8
0006
000C
FFF6
FFFA
000D
0001
FFF9
FFFB
0015
0005
0018
0001
0011
FFFD
FFFC
0004
001B
000F
0007
FFF0
0005
0007
0004
FFFA
0003
FFFA
FFF5
0001
000E
0006
0000
FFFA
FFFE
0009
001C
0006
FFFF
FFFE
0007
FFDC
0004
000F
000A
FFFE
FFFF
0018
FFEF
0002
FFFD
FFFF
FFF9
0004
0006
0001
000B
0015
FFFD
FFF6
000A
0007
0015
0007
0009
0004
000C
0011
FFE8
000B
0007
FFE8
FFF3
0004
0015
0017
FFF8
FFF2
000B
000F
FFF7
FFFF
FFFF
0018
FFF2
FFF9
FFFB
000F
0006
FFFF
0005
0001
0001
0003
FFF6
001F
FFEB
0000
FFFA
0003
000B
FFFD
FFFA
0000
0007
000E
000E
0008
001A
0010
0005
FFF6
FFF7
0003
FFFB
0003
FFF8
FFFD
FFFD
FFF4
FFFA
FFEB
0004
0004
FFFE
0006
0005
0010
0002
FFFB
0011
FFFF
000F
FFED
0009
0001
FFF7
FFFD
FFF5
0000
FFFF
FFF5
0004
FFFF
000C
0002
0002
FFFD
FFFE
FFF1
0001
0004
FFF9
FFFD
FFFE
FFFE
FFFD
FFF2
FFF5
0006
FFFD
FFFE
FFF8
001E
FFFA
FFEB
FFFB
FFF6
FFEB
0003
0001
0010
FFF8
000E
0003
FFF3
FFFF
FFD4
0024
FFFE
FFFC
FFF0
FFF8
0008
FFF5
0001
FFED
FFF1
FFFC
000A
FFE6
FFE3
0000
FFF0
0007
0008
FFF7
FFF7
FFF4
0009
000A
000B
FFF4
FFFB
FFF2
FFD9
FFF9
000D
FFFA
000D
0005
0000
FFFD
0005
FFF5
FFFF
FFF8
000F
FFEB
FFF5
FFF1
0010
FFF6
0006
0004
FFFE
FFF2
0002
FFF6
FFFE
0006
FFF9
0015
0000
FFE4
FFFD
FFFF
0001
FFDE
0004
0001
FFEC
0006
0005
FFFF
FFFB
FFFE
FFFF
FFFA
0005
FFF9
0010
000B
FFFA
0004
FFFA
FFE3
0004
000A
0008
FFF5
FFF1
FFFD
0001
FFFE
FFF1
FFFB
0006
FFF8
000B
0014
FFF4
FFE6
0005
000E
0006
0000
0006
FFFA
FFFD
FFF1
FFE9
FFFA
001A
0002
0023
000D
000D
FFF5
FFF5
0003
FFF8
FFF9
FFFF
FFFB
0009
FFF6
0021
FFEF
0010
FFF9
FFFE
0003
FFFF
000F
0001
FFF6
0001
0000
FFFD
FFEA
FFF9
0006
FFF7
000C
FFFB
0003
FFFE
FFFB
0000
0014
0004
000A
0005
FFFF
FFFA
0002
0013
0013
FFFF
000E
0003
0008
001B
FFFE
FFF0
FFF1
0005
0003
FFF8
FFF1
0008
0007
FFF0
0004
000A
FFF4
0009
0009
0005
0011
FFF2
FFFE
000B
FFED
0003
FFFC
0007
0014
0013
FFFE
000A
0002
0011
FFF4
FFF1
FFF4
FFFC
FFFF
FFF3
0008
FFF8
FFDE
FFFF
0003
0001
0023
0009
0013
FFFE
FFFE
0012
FFF8
0005
FFF8
FFF1
0021
FFF1
FFF2
0002
FFFD
FFFF
FFEB
000D
0012
0008
000D
0000
FFFA
FFFD
0000
0003
0005
000B
0009
0003
0000
0004
0007
000D
0006
FFFA
0007
0013
0005
000C
0007
FFF3
FFF9
0008
001B
FFE4
FFED
0005
0006
FFF4
FFF9
0013
0010
FFFE
0007
0001
FFF3
0003
0004
FFFF
FFE9
000A
000B
0000
000B
FFF7
0005
FFF4
FFFF
FFFB
0003
0004
0001
FFF6
0008
0007
0012
0005
0003
0000
0010
0008
FFEC
FFFE
0015
0000
0001
0009
FFE9
FFFB
000F
000E
0005
000B
000B
0011
000A
0015
FFFB
000B
FFFC
0013
FFFE
FFF4
FFF7
000A
0006
0006
FFF5
FFF9
FFEA
0003
FFDC
0005
0008
0015
0017
0012
0006
001C
FFF6
0009
0006
000F
FFF5
FFF6
FFFC
000C
FFF0
FFFB
000A
FFFB
0010
FFF2
0000
000C
0002
FFF6
FFFC
FFFF
000C
FFFA
000D
FFF0
000A
FFF4
FFE5
FFF1
001E
0006
FFF0
FFEB
FFFE
0009
FFEF
0005
0001
0009
0005
0003
000D
FFF6
0001
0001
0005
0003
FFE9
0003
FFF8
0001
0002
FFFE
FFF0
FFF0
0005
0005
FFFB
0006
FFF6
000E
0000
000A
0004
0016
000F
000F
FFF7
FFFF
FFF8
FFF6
0003
0000
FFFE
FFF8
FFFE
FFFD
FFF4
000D
000E
0007
FFF9
FFFA
0012
0005
FFFB
0006
FFFC
0006
FFF9
0001
000B
000E
FFFB
FFF0
0002
FFE3
FFFD
FFFE
FFE3
0008
FFFF
0002
0012
000A
FFFB
FFF3
0002
0009
FFFF
0003
FFF9
0010
0003
0025
FFF7
0008
FFE9
0001
FFFB
000B
FFFC
FFF8
FFFB
FFF7
0019
0009
0015
0006
FFFE
0012
0007
FFFA
0007
000D
FFEC
FFFC
FFFB
000B
000F
FFD9
000A
0020
FFFB
FFF6
0008
FFFB
0000
FFF0
000C
FFFD
FFF9
0000
000B
0005
FFFE
FFFC
0000
0005
FFF7
0007
000B
000A
000D
FFF7
0006
0002
FFF6
0003
0007
0002
0003
0009
0005
0003
FFFE
0000
FFF8
FFFF
FFF7
FFF8
0004
FFF9
0013
0001
0000
FFFC
000C
FFF7
0001
0014
FFF4
0005
0005
0002
0016
FFFC
0004
000E
FFFE
FFF1
000B
FFFB
FFFF
0004
0008
FFF3
FFF8
0002
0003
FFFD
FFEA
FFED
0002
FFFE
FFE6
0004
0015
FFFF
FFF3
FFFC
000F
FFF9
000C
0005
FFFD
001C
000F
0008
FFED
FFE4
FFFC
000F
FFF1
FFE9
FFFE
0014
FFE5
FFD4
0002
0005
FFF0
0003
FFFD
0000
0002
FFF6
FFEB
FFFA
0008
FFFD
0011
FFEA
FFE9
0007
FFF7
0009
0006
FFFE
0017
FFF3
0016
0007
0006
0002
FFE2
0005
FFEE
FFFC
0000
0006
000F
FFFF
0008
0025
0008
FFEE
FFFD
FFF9
0002
0008
0000
000F
0007
FFFD
0011
0000
FFF2
FFFA
FFF1
FFEA
0008
0014
0019
0001
FFFC
FFF9
FFFB
0002
FFF5
FFF9
0007
FFEB
FFF3
FFFF
FFFA
000A
0000
FFF3
FFF7
FFFF
FFFE
FFFB
FFF5
0017
0000
000D
FFED
000E
FFF8
0016
001F
FFF0
000C
FFFE
000B
0022
FFF5
0006
FFED
FFF7
0005
0002
000B
FFF6
0006
FFED
000D
0001
FFFF
FFED
FFEF
FFFF
0002
001C
FFFC
FFFD
000D
FFFF
FFFA
FFF5
FFFE
0003
0009
FFFF
0005
FFF2
FFFD
FFFB
FFE9
FFFC
FFFB
FFF4
0003
FFFF
FFF4
FFFE
FFFA
0001
FFF8
FFF9
000B
000F
FFFF
FFF5
0018
FFF2
000B
000E
FFF0
0005
FFFC
FFE2
FFF5
FFF1
FFF2
FFFE
0015
0004
FFFE
FFE8
FFF8
0006
FFEC
FFF2
FFF6
FFF0
000D
0006
0006
FFED
0001
FFF5
000F
FFFA
FFF8
FFF8
0002
FFF7
FFFE
FFFD
FFF2
FFFF
FFFD
0002
FFFE
0008
FFED
FFFF
FFFA
0013
0016
FFEF
0009
0009
FFF6
FFF6
0009
0004
0004
FFF9
0008
000E
0017
000C
000C
FFF8
0010
000B
0009
FFF2
0009
0004
0005
0011
0010
0005
0006
FFFC
000A
FFF5
FFF3
0012
0002
FFE5
FFFC
FFFE
FFF1
FFE3
FFFE
0000
0006
FFF9
FFFB
FFF5
000B
FFF4
FFE3
0007
000C
0002
000D
0012
FFF6
0004
0003
0000
FFF2
0003
0000
0004
0007
FFFA
0013
000B
001B
0001
FFE7
FFF5
000C
FFF6
0008
FFF3
FFED
FFE5
000C
FFFF
0003
0001
0002
0005
FFFF
0005
FFED
000F
0021
0003
FFEB
FFFB
0005
FFF8
0009
0000
FFFB
0004
0004
000A
0010
000F
0003
FFFE
0004
0004
0002
000E
FFFD
FFF9
0010
000A
FFF2
0003
0000
0007
FFF6
FFF6
FFF3
FFFF
FFF8
0013
0002
FFF3
FFF5
FFFE
FFFF
0006
0038
0019
FFFF
0004
FFEF
001E
0003
FFFF
000A
001C
FFFE
0002
FFFE
0003
FFEC
FFE9
0008
000A
0007
0001
0000
0017
FFFD
FFFA
FFF9
FFF1
FFEA
0012
0013
FFFF
000E
0002
FFF6
0004
000B
001D
FFF4
0010
FFE8
0005
0001
FFE0
FFED
FFF5
0002
0003
0002
FFF2
0009
0003
000C
0009
FFF2
0012
FFF9
FFF7
FFF8
FFF7
FFFB
FFFF
0006
0010
FFF7
FFFF
0012
000D
0005
FFEE
FFFD
FFF1
FFF7
000F
0005
0002
FFFC
FFED
000D
000D
001A
0011
0009
FFEF
FFF4
000D
0004
FFFB
001B
FFFE
000A
0007
FFDF
000B
FFFC
FFD8
FFFE
FFFF
0005
FFF7
000B
0002
FFE4
FFF6
FFFB
FFFD
000E
FFF2
FFFE
FFF9
FFFF
0007
FFF1
FFF7
FFFE
000B
FFC9
0016
FFED
0010
FFFA
FFFC
FFF0
000C
FFFF
0005
0012
FFF9
0007
FFFB
FFF5
FFEC
0002
FFF3
0002
000A
FFFE
0012
FFEF
FFE7
FFFF
0006
FFFE
001C
0005
FFF2
FFFA
0010
0009
FFE7
FFFF
FFFF
0009
0005
0008
FFF7
0005
0000
FFF1
FFFC
FFF7
FFF9
0014
001A
000D
FFF3
0002
FFED
FFFC
FFFC
FFF3
0008
FFF1
FFFB
FFFD
FFF5
0000
FFFE
FFF7
0007
000E
FFEB
001D
0003
0006
0005
0004
0002
FFF6
0002
FFF1
FFFD
FFFC
FFF1
FFF4
0007
0003
000B
FFF2
0000
FFF6
FFF7
FFF2
0020
0001
FFF3
0009
FFF6
0005
0016
000C
0002
0013
FFF7
0005
000C
0005
0007
0008
FFFE
FFF3
FFE4
FFDF
0005
002F
0003
FFFE
FFF0
0008
FFF4
FFE4
0009
0002
FFF2
FFFC
FFFD
0008
0011
FFF9
0001
0001
FFF7
FFFE
000B
FFED
0005
FFFD
0008
FFFE
000A
FFF2
000A
FFF2
FFFF
0013
FFFB
0001
FFF1
FFFE
FFF5
FFFF
FFFE
FFFF
FFF9
000D
FFFF
FFF0
FFFA
FFFD
0003
0006
000D
0010
0003
000B
FFF3
000F
0000
FFFC
FFFA
0012
FFEA
FFE6
0015
FFEC
FFF7
FFF1
FFFA
FFFF
0007
000B
FFF5
0019
0003
0005
001C
0005
000F
FFFA
000F
FFFC
FFFB
0003
FFF2
0001
FFF9
FFF7
FFF2
0007
0008
FFFB
0000
FFF3
000A
0016
0006
FFF9
FFED
0025
0005
0001
FFF8
000C
0015
FFF9
0005
0004
0013
FFEE
0008
FFFF
FFF9
0005
0006
FFFE
FFE9
0000
0004
0002
FFFD
FFFC
0006
FFF4
FFF7
0006
000F
001D
FFFE
FFF6
FFFC
FFF6
FFF3
FFE1
FFED
0009
0001
0009
000B
FFF1
FFF9
0004
0014
000D
0009
000A
0007
001D
FFFB
FFF3
FFF9
FFF4
FFEC
FFF6
0002
FFF6
0010
FFFA
0000
FFFD
FFED
0006
FFF6
FFFB
FFF0
FFFE
0005
FFFE
FFF7
FFFD
FFFE
FFF5
FFFC
FFF2
FFFB
FFFE
FFFE
FFF5
FFFE
FFE9
FFFC
0007
0001
0006
FFF4
000A
FFFB
0009
FFFD
0000
0001
0001
0000
FFFE
FFFC
FFFF
FFFD
0002
FFF7
000F
000D
0000
0017
FFF8
FFFF
001B
0004
0002
0000
0001
0003
0008
FFEF
000C
0007
FFF7
FFFF
000C
000A
FFFF
FFFD
FFF9
0002
0008
FFFB
0005
0006
0008
000A
FFF6
FFFD
0009
FFFE
000E
FFFC
FFFD
000B
000A
FFFE
0008
FFF9
0002
FFF6
0008
0002
FFFF
FFFD
000B
0001
0005
0000
0005
FFF8
FFF7
FFED
FFF9
000A
0005
FFFD
FFF0
0006
0005
0008
FFFE
FFF1
FFEE
0004
FFF8
0009
0005
FFF5
FFFC
0004
000B
000D
FFF9
FFFE
FFED
000C
0002
000D
000A
0005
0004
FFF8
0003
0003
FFF8
FFF7
0006
FFFC
0003
0001
FFFB
001F
FFFB
0003
FFF9
FFFB
0000
0001
0001
0000
0001
FFFF
0000
FFFB
0000
0003
000D
0002
FFFE
FFF9
0003
FFFA
FFE7
FFFB
FFFE
FFFC
0002
0003
FFFF
000D
FFFA
0007
FFFB
FFFD
FFFD
0001
0008
FFFF
FFFB
FFFF
0009
0005
FFFF
FFFD
0003
0010
0006
FFEC
FFEA
0005
FFFD
0004
FFFF
0005
0012
0006
FFFC
0006
0001
0006
0008
FFFF
FFDB
FFE9
0009
FFF5
FFFF
FFF6
0000
FFF7
FFFB
FFEB
0002
FFFC
FFF3
FFFF
000F
FFFC
000D
FFFE
0006
0016
FFFB
FFFC
0012
0008
003A
0001
FFFF
0008
0000
000B
FFF9
0003
0009
0004
FFF8
FFFC
0005
0007
FFF7
0000
FFF3
0000
0010
FFFE
FFFE
0004
FFFB
0000
FFFB
0002
0003
FFFD
FFF6
FFE0
0001
000B
0006
0000
0000
FFFB
0002
0003
0002
0009
0006
FFFC
0000
FFD4
0002
0000
FFF7
0006
0003
0004
0011
0002
FFFB
FFF5
000D
0000
FFF8
FFF2
FFEE
0007
FFFF
FFEA
FFFE
FFF5
000A
0007
0002
FFFD
0007
000D
0010
FFFD
0007
FFFB
000D
0004
FFFF
FFFC
FFF8
0006
FFF8
0002
FFF0
0002
0007
FFE3
FFF1
FFF7
001A
0007
FFFD
000B
0007
FFFD
0007
000C
FFF4
FFEC
FFFD
000E
FFF3
000D
0009
0001
000B
FFF0
FFFC
FFFB
FFF3
FFF8
0014
FFF6
0003
0003
FFF6
FFFC
0027
001F
FFEF
FFF7
002A
0019
FFFD
000A
FFF2
0003
0004
0003
0001
0007
0001
0002
000D
0005
0013
FFFA
FFEF
FFF7
FFF0
FFE9
FFF8
FFF4
FFF8
0002
FFF3
FFFD
0000
0009
FFF6
0003
FFDD
FFFE
FFFC
0005
FFFE
0007
0010
FFFD
FFF8
0001
0003
FFF0
FFFC
0000
0002
FFFD
FFF8
FFFE
FFF2
0007
0006
0002
FFEE
0011
0007
FFF5
FFFE
FFFE
FFEE
FFF0
FFFC
FFF7
FFFC
FFEE
FFFB
FFF1
FFF4
FFF6
FFF9
FFF9
FFE3
FFFC
FFFC
0004
FFFD
0007
FFF2
0001
0001
0000
000E
FFF9
0002
FFFB
0000
0015
FFF2
000E
0002
FFFF
FFE9
FFED
0003
FFEF
FFF7
0002
FFFE
FFF8
FFEE
FFFF
0007
FFFA
FFFF
0006
FFF8
001A
000D
FFF0
0014
FFFC
0000
0009
001B
0028
FFF9
0003
FFF8
0001
0002
FFFE
0013
0008
FFF7
0009
0003
FFFF
0008
FFF0
000A
0002
0010
FFF4
FFFD
FFFF
FFED
FFF0
FFF4
0006
FFF7
FFFB
FFFF
FFF6
0019
FFFD
FFEF
0017
FFF5
FFE6
0007
0004
0006
0005
FFFC
FFFC
001E
0003
FFEC
0015
FFF4
FFF7
0000
000D
0003
000E
FFFD
000A
001F
FFFD
FFFF
FFFB
0003
FFFB
FFF2
FFF1
FFE3
FFEC
FFFB
0003
0005
FFFD
FFF6
0009
0012
0001
FFF8
0001
FFF0
0002
000E
FFFF
0000
FFF2
0003
001C
FFFE
FFF8
000D
FFFC
FFE4
FFF5
0007
FFFB
0006
FFF9
FFF4
FFFB
0012
0004
0003
FFF4
0021
0026
FFFE
FFFD
FFFD
FFF4
000E
FFFF
FFF6
0004
FFFC
FFF1
0012
FFFA
FFFD
FFF6
0005
FFF3
0014
0001
0018
FFF8
FFDC
0000
0012
FFFD
FFFF
0007
FFFA
FFFC
FFFC
FFF1
FFF5
FFEC
FFF6
FFF1
0001
FFFC
FFE9
0013
FFFE
FFFD
0012
FFEB
FFF5
000D
FFF2
FFFC
0007
FFEB
FFFF
0000
FFE6
FFEF
0003
FFF1
FFF3
FFF6
0006
0007
FFF9
FFEF
FFF1
FFFF
FFF3
0007
FFFD
FFF0
FFF4
0006
FFFF
FFFF
0003
FFF1
FFF5
0001
000F
FFF0
FFFD
FFFD
0003
0004
0006
0002
FFF8
000D
0002
FFF2
0006
FFFB
FFF3
FFEF
FFF5
000F
0008
0012
FFFD
0004
0008
0005
FFF6
000E
FFF3
FFF9
000D
0008
0004
FFE5
0006
0002
0015
FFFA
FFFA
FFFD
FFF3
0009
0005
0014
0000
FFFC
FFFF
001D
0012
FFF3
0001
0007
0010
0003
FFF2
0002
FFFB
FFF2
FFEB
0006
FFFC
0000
FFF0
0007
FFF2
0009
0001
0007
FFFC
0001
0007
000A
FFF7
0005
FFEE
FFF0
000F
0009
FFFB
FFFF
FFF4
FFF3
0002
FFF5
000E
FFFB
FFFE
FFF3
FFF2
FFE4
0002
0013
FFFF
000A
FFF7
000A
0014
0017
0002
0002
0003
0002
FFF5
000A
0002
FFFB
0002
0010
FFF7
FFEC
0009
0006
FFEA
000E
000E
000B
0010
0014
0009
FFF9
0012
0010
FFF2
001A
0012
FFFB
0011
FFF3
0013
FFEA
0002
FFF5
FFE7
0001
FFF5
FFFC
FFFD
0005
FFFB
FFEC
0011
000D
FFF9
0008
0001
0009
FFF6
FFF8
0000
000D
001A
000F
FFFB
0013
FFE4
0002
0005
FFF0
0000
0006
FFF0
0012
FFFE
FFEB
000D
FFFE
FFEB
0017
FFE3
000D
0005
000E
0007
FFEB
FFFE
0001
0010
FFFC
FFFF
FFF9
FFE5
000B
0009
0000
0006
FFFB
FFEE
FFF9
FFF2
0011
FFFB
0010
FFF9
0003
0009
FFFE
FFFF
0010
FFFD
FFF5
0000
000C
FFF3
0001
0002
000A
0006
0000
FFE4
FFFF
FFEB
FFFC
0005
0013
FFF5
0018
FFFF
0005
FFF3
FFFE
0007
0001
FFEB
FFF6
FFF4
0004
0002
FFFF
FFE5
000F
FFED
FFF4
FFF0
0009
FFFC
FFFF
0002
FFFF
0005
0000
FFE3
FFFD
0001
FFFF
FFF9
FFED
0009
FFE7
FFEE
FFFB
000E
0010
000F
0000
0001
FFFD
0008
FFFD
FFFA
FFFE
FFF0
0007
0005
FFFC
FFFF
0000
FFFF
0001
0014
FFF7
0003
FFFA
FFF2
001A
000A
000A
FFF6
0000
FFFF
FFF2
FFFC
FFEE
FFF2
FFFE
0015
000C
FFF8
0009
0003
000B
FFF1
0000
0002
FFFB
000A
0002
FFFF
FFF1
0005
FFF3
FFF4
0003
FFFD
0000
0000
FFEC
FFFD
FFFC
FFF8
0007
0000
FFF4
FFEC
0003
FFFE
0000
0008
FFF3
FFFB
000A
FFF8
0019
0007
FFF7
FFFD
0004
FFFD
0000
0006
FFF9
FFFF
FFF2
0006
FFE9
000B
FFE7
FFF9
FFF8
FFF8
FFED
0006
000C
FFF7
FFFE
0009
0006
FFEE
0004
FFFF
0005
0007
FFF9
0007
000E
000A
FFFF
0004
0000
0000
FFDE
0000
FFF4
FFFB
0004
0005
FFF6
0001
FFFC
FFF9
FFF7
FFF8
0001
FFF0
0004
FFFF
FFF3
FFF8
000E
FFF3
0002
0013
FFF2
FFFF
0000
0007
FFF0
0015
000D
FFFC
FFED
0001
0008
FFFC
000B
0000
FFFF
FFFF
001A
0000
0010
0009
0006
FFF2
FFF2
FFF3
FFFE
001D
FFF4
FFED
FFEE
000F
FFFF
FFFE
FFF9
0004
000B
FFF7
FFFC
0000
001A
0005
FFFC
FFFA
FFE0
0006
000B
FFF7
FFF6
0012
FFEB
FFEF
FFF7
0002
FFF2
000B
0001
FFE9
0017
FFF2
FFE3
FFFC
0007
0016
0011
FFF0
FFF4
0003
FFEE
FFF8
0012
001E
0002
FFF4
000B
0006
0011
FFFB
FFE6
0012
FFED
000A
000B
0007
FFEA
0010
0007
FFF0
FFFC
FFFA
FFF7
000D
0004
000A
FFFA
0000
000A
FFFE
000E
000B
FFF2
0005
FFFB
FFF8
FFF4
0012
FFF5
FFFB
FFFE
0004
FFFC
001D
000E
FFF9
000C
FFFB
000B
FFDF
0003
000C
0009
000B
0004
FFF2
0000
0002
0006
FFEF
FFFE
000A
FFF0
FFFE
0001
000B
FFF7
FFFE
000C
0018
FFF9
0000
0011
000C
FFFF
FFFF
FFFA
0004
FFEB
FFED
FFFB
FFFE
0001
FFFD
FFFE
FFF9
FFFE
FFF6
0000
000C
FFFC
FFFC
000B
0000
FFFB
0008
0004
0007
FFFD
0005
FFF5
0003
0001
0017
000A
FFF9
000F
FFFB
0001
FFFD
0009
0007
FFFA
0006
000C
0024
002A
FFF9
000C
FFE9
FFE1
000E
FFFE
FFF6
FFFA
0000
FFF9
FFF5
FFFD
0002
0005
FFF2
FFF7
FFFC
FFFE
FFFA
FFF9
FFFD
FFFD
0006
000D
FFF6
0009
000A
000D
FFF6
FFF1
000A
FFEB
FFFF
0002
0007
FFF7
FFE8
0009
FFEF
0025
0007
0005
FFF9
000F
0005
FFFD
FFFF
FFF9
FFFA
FFEB
FFFA
FFEE
0007
0013
FFF7
FFFD
FFF7
FFFF
001C
000A
FFF6
FFF7
FFF6
FFFD
0021
0011
FFF6
0007
FFFF
0007
FFFD
000A
FFEC
FFF6
FFF6
FFFD
FFF8
FFF6
FFF9
FFF2
FFF1
0006
FFFE
FFF7
FFFC
FFF6
FFE9
0003
FFE2
FFFB
FFF4
0006
FFE1
FFF4
FFFA
0005
FFFE
0008
FFFE
0009
FFF1
0010
FFE7
FFFA
000A
000D
FFF6
FFF6
0003
0001
FFF8
0008
