0024
000E
0001
0002
001F
0012
FFFE
FFEF
001A
FFE5
0008
0019
003E
FFD0
0025
0007
0012
FFF0
FFBC
FFF6
FFFF
0006
FFF7
FFFD
000E
0001
FFD4
FFE7
FFF4
FFE0
FFD1
003E
0009
0020
FFC6
FFFA
FFFD
0017
FFF4
FFF0
0012
0017
FFF3
0012
0001
0012
0001
0019
0023
FFB9
FFFB
0012
FFD8
FFB2
0019
FFE9
FFE9
0016
0011
FFC5
001C
0001
0026
FFD8
